// Auto-generated from model_quant.tflite
// Size: 18544 bytes

#include <stdint.h>

alignas(16) const unsigned char model_tflite[] = {
    0x1c, 0x00, 0x00, 0x00, 0x54, 0x46, 0x4c, 0x33, 0x14, 0x00, 0x20, 0x00, 
    0x1c, 0x00, 0x18, 0x00, 0x14, 0x00, 0x10, 0x00, 0x0c, 0x00, 0x00, 0x00, 
    0x08, 0x00, 0x04, 0x00, 0x14, 0x00, 0x00, 0x00, 0x1c, 0x00, 0x00, 0x00, 
    0x90, 0x00, 0x00, 0x00, 0xe8, 0x00, 0x00, 0x00, 0xfc, 0x28, 0x00, 0x00, 
    0x0c, 0x29, 0x00, 0x00, 0x18, 0x48, 0x00, 0x00, 0x03, 0x00, 0x00, 0x00, 
    0x01, 0x00, 0x00, 0x00, 0x10, 0x00, 0x00, 0x00, 0x00, 0x00, 0x0a, 0x00, 
    0x10, 0x00, 0x0c, 0x00, 0x08, 0x00, 0x04, 0x00, 0x0a, 0x00, 0x00, 0x00, 
    0x0c, 0x00, 0x00, 0x00, 0x1c, 0x00, 0x00, 0x00, 0x3c, 0x00, 0x00, 0x00, 
    0x0f, 0x00, 0x00, 0x00, 0x73, 0x65, 0x72, 0x76, 0x69, 0x6e, 0x67, 0x5f, 
    0x64, 0x65, 0x66, 0x61, 0x75, 0x6c, 0x74, 0x00, 0x01, 0x00, 0x00, 0x00, 
    0x04, 0x00, 0x00, 0x00, 0x98, 0xff, 0xff, 0xff, 0x11, 0x00, 0x00, 0x00, 
    0x04, 0x00, 0x00, 0x00, 0x08, 0x00, 0x00, 0x00, 0x6f, 0x75, 0x74, 0x70, 
    0x75, 0x74, 0x5f, 0x30, 0x00, 0x00, 0x00, 0x00, 0x01, 0x00, 0x00, 0x00, 
    0x04, 0x00, 0x00, 0x00, 0x9e, 0xd8, 0xff, 0xff, 0x04, 0x00, 0x00, 0x00, 
    0x05, 0x00, 0x00, 0x00, 0x69, 0x6e, 0x70, 0x75, 0x74, 0x00, 0x00, 0x00, 
    0x02, 0x00, 0x00, 0x00, 0x34, 0x00, 0x00, 0x00, 0x04, 0x00, 0x00, 0x00, 
    0xdc, 0xff, 0xff, 0xff, 0x14, 0x00, 0x00, 0x00, 0x04, 0x00, 0x00, 0x00, 
    0x13, 0x00, 0x00, 0x00, 0x43, 0x4f, 0x4e, 0x56, 0x45, 0x52, 0x53, 0x49, 
    0x4f, 0x4e, 0x5f, 0x4d, 0x45, 0x54, 0x41, 0x44, 0x41, 0x54, 0x41, 0x00, 
    0x08, 0x00, 0x0c, 0x00, 0x08, 0x00, 0x04, 0x00, 0x08, 0x00, 0x00, 0x00, 
    0x13, 0x00, 0x00, 0x00, 0x04, 0x00, 0x00, 0x00, 0x13, 0x00, 0x00, 0x00, 
    0x6d, 0x69, 0x6e, 0x5f, 0x72, 0x75, 0x6e, 0x74, 0x69, 0x6d, 0x65, 0x5f, 
    0x76, 0x65, 0x72, 0x73, 0x69, 0x6f, 0x6e, 0x00, 0x15, 0x00, 0x00, 0x00, 
    0x10, 0x28, 0x00, 0x00, 0x08, 0x28, 0x00, 0x00, 0xec, 0x26, 0x00, 0x00, 
    0x44, 0x1a, 0x00, 0x00, 0x74, 0x19, 0x00, 0x00, 0xe4, 0x14, 0x00, 0x00, 
    0x74, 0x14, 0x00, 0x00, 0xd4, 0x13, 0x00, 0x00, 0x34, 0x13, 0x00, 0x00, 
    0xc4, 0x12, 0x00, 0x00, 0x34, 0x0e, 0x00, 0x00, 0x64, 0x0d, 0x00, 0x00, 
    0xc4, 0x00, 0x00, 0x00, 0xbc, 0x00, 0x00, 0x00, 0xb4, 0x00, 0x00, 0x00, 
    0xac, 0x00, 0x00, 0x00, 0xa4, 0x00, 0x00, 0x00, 0x9c, 0x00, 0x00, 0x00, 
    0x94, 0x00, 0x00, 0x00, 0x74, 0x00, 0x00, 0x00, 0x04, 0x00, 0x00, 0x00, 
    0x66, 0xd9, 0xff, 0xff, 0x04, 0x00, 0x00, 0x00, 0x60, 0x00, 0x00, 0x00, 
    0x0c, 0x00, 0x00, 0x00, 0x08, 0x00, 0x0e, 0x00, 0x08, 0x00, 0x04, 0x00, 
    0x08, 0x00, 0x00, 0x00, 0x10, 0x00, 0x00, 0x00, 0x28, 0x00, 0x00, 0x00, 
    0x00, 0x00, 0x06, 0x00, 0x08, 0x00, 0x04, 0x00, 0x06, 0x00, 0x00, 0x00, 
    0x04, 0x00, 0x00, 0x00, 0x01, 0x00, 0x00, 0x00, 0xeb, 0x03, 0x00, 0x00, 
    0x0c, 0x00, 0x18, 0x00, 0x14, 0x00, 0x10, 0x00, 0x0c, 0x00, 0x04, 0x00, 
    0x0c, 0x00, 0x00, 0x00, 0x05, 0x34, 0x2f, 0x14, 0x6a, 0x81, 0xe7, 0x98, 
    0x01, 0x00, 0x00, 0x00, 0x02, 0x00, 0x00, 0x00, 0x04, 0x00, 0x00, 0x00, 
    0x06, 0x00, 0x00, 0x00, 0x32, 0x2e, 0x32, 0x30, 0x2e, 0x30, 0x00, 0x00, 
    0xd2, 0xd9, 0xff, 0xff, 0x04, 0x00, 0x00, 0x00, 0x10, 0x00, 0x00, 0x00, 
    0x31, 0x2e, 0x31, 0x34, 0x2e, 0x30, 0x00, 0x00, 0x00, 0x00, 0x00, 0x00, 
    0x00, 0x00, 0x00, 0x00, 0xb0, 0xd7, 0xff, 0xff, 0xb4, 0xd7, 0xff, 0xff, 
    0xb8, 0xd7, 0xff, 0xff, 0xbc, 0xd7, 0xff, 0xff, 0xc0, 0xd7, 0xff, 0xff, 
    0xc4, 0xd7, 0xff, 0xff, 0x06, 0xda, 0xff, 0xff, 0x04, 0x00, 0x00, 0x00, 
    0x90, 0x0c, 0x00, 0x00, 0xc8, 0x7f, 0x77, 0x0f, 0x44, 0x39, 0x3f, 0xbb, 
    0x64, 0x42, 0x4b, 0x03, 0x7d, 0xf9, 0x6f, 0xf3, 0xae, 0x24, 0x21, 0xcc, 
    0x36, 0x82, 0xa9, 0x95, 0xe9, 0xbc, 0x84, 0x65, 0xe8, 0x2c, 0x34, 0x42, 
    0x7e, 0x88, 0xa8, 0x68, 0x29, 0x1e, 0x70, 0x6a, 0x68, 0x63, 0x2a, 0x30, 
    0xda, 0xda, 0x50, 0x5b, 0xea, 0xf3, 0x12, 0x21, 0xbe, 0x87, 0xd5, 0x08, 
    0xbe, 0xd3, 0x08, 0x02, 0xaa, 0xdb, 0x19, 0xdd, 0x53, 0xdd, 0xfd, 0xdd, 
    0x21, 0xc7, 0xe3, 0x2e, 0xba, 0xeb, 0xae, 0x9e, 0x7f, 0x2f, 0x4c, 0xa3, 
    0x4f, 0x22, 0x4e, 0xca, 0xe1, 0xb5, 0xd2, 0x19, 0x4f, 0xdf, 0xf5, 0x65, 
    0xe9, 0x15, 0x27, 0x89, 0xf7, 0x6b, 0x15, 0x59, 0x00, 0x79, 0x53, 0x55, 
    0x64, 0x5a, 0xb4, 0x53, 0x40, 0xde, 0xe5, 0x96, 0xf2, 0xa1, 0x63, 0xf1, 
    0xe1, 0xd8, 0xa6, 0xfb, 0xb2, 0x0e, 0xcb, 0x42, 0x3d, 0xca, 0xd3, 0x38, 
    0xb1, 0x53, 0x00, 0xf5, 0xbd, 0x4b, 0x95, 0xd6, 0x4d, 0xe7, 0x33, 0xe7, 
    0xb7, 0xb8, 0xed, 0x21, 0xc9, 0x0f, 0x0e, 0xd3, 0x0b, 0xbd, 0xb0, 0x3e, 
    0xc1, 0x99, 0x99, 0xc4, 0x3a, 0xc9, 0x9f, 0x3c, 0x11, 0x45, 0x3e, 0x29, 
    0x0f, 0x6d, 0x56, 0x4c, 0x47, 0x46, 0xaf, 0x05, 0x4e, 0xed, 0xee, 0x58, 
    0x3b, 0x0d, 0xfb, 0x2d, 0x10, 0xf5, 0xec, 0x8b, 0x42, 0xef, 0xa2, 0xd4, 
    0xbd, 0xda, 0x1e, 0x81, 0x91, 0x8b, 0xdb, 0xa5, 0xe8, 0x49, 0x15, 0xa3, 
    0x95, 0x3c, 0x51, 0x97, 0xdf, 0xf2, 0xb3, 0xa3, 0x50, 0xa1, 0x32, 0x0b, 
    0x7c, 0xd1, 0xa7, 0xea, 0x6c, 0xdf, 0xec, 0x35, 0xfc, 0xb7, 0x3d, 0xb1, 
    0xef, 0x5a, 0xd3, 0x53, 0x5b, 0x92, 0x01, 0x1e, 0x0c, 0xd2, 0xea, 0x7f, 
    0xf6, 0x13, 0x13, 0x36, 0x84, 0xdb, 0x94, 0xc9, 0x63, 0x6f, 0xa1, 0xb1, 
    0xd9, 0xb0, 0x55, 0x75, 0x04, 0xf2, 0x19, 0x5e, 0xb1, 0xb6, 0xb5, 0x42, 
    0xfb, 0x97, 0xf3, 0x61, 0x6b, 0x2f, 0x38, 0x75, 0xfc, 0x91, 0xf7, 0x8e, 
    0xb2, 0x8b, 0x59, 0x23, 0xf4, 0x46, 0xdf, 0x9c, 0x6f, 0xaa, 0x4c, 0xd1, 
    0x9f, 0x0f, 0x08, 0x8a, 0x91, 0x95, 0xe8, 0x5a, 0x22, 0x01, 0xf8, 0x7c, 
    0x07, 0x00, 0xa3, 0xab, 0x4b, 0x11, 0x44, 0xc6, 0xfa, 0x1b, 0xdf, 0x04, 
    0x97, 0x9a, 0x07, 0xbb, 0xe6, 0x5c, 0x29, 0x5e, 0xf1, 0x22, 0x75, 0x57, 
    0x54, 0x9c, 0x03, 0xf8, 0x0f, 0x03, 0x12, 0x6a, 0xfb, 0x27, 0xe8, 0xf6, 
    0xaa, 0x7f, 0x77, 0x37, 0x75, 0x41, 0xd4, 0xcb, 0x68, 0x45, 0x3a, 0x0e, 
    0xee, 0x5c, 0xc9, 0x6e, 0x73, 0x65, 0x2b, 0xdb, 0xd3, 0xd9, 0x67, 0x0f, 
    0x17, 0x7b, 0x1c, 0xf0, 0x4a, 0x7f, 0x76, 0x24, 0x90, 0x92, 0xb0, 0xa3, 
    0xf5, 0x93, 0x48, 0xa4, 0x11, 0xe1, 0x5b, 0xa0, 0x8e, 0xc3, 0x29, 0x92, 
    0x31, 0x0d, 0xb3, 0xd6, 0x02, 0xdd, 0xf4, 0xcb, 0xa7, 0x23, 0xfb, 0x94, 
    0x9a, 0x12, 0x3e, 0x94, 0x39, 0xec, 0xd2, 0xe4, 0x9d, 0x3d, 0x0b, 0xcf, 
    0xe4, 0xfb, 0x93, 0xf8, 0x29, 0xc1, 0xf3, 0xce, 0x0c, 0x50, 0x5b, 0x7f, 
    0x0e, 0x35, 0x67, 0x0d, 0x98, 0x9d, 0xf5, 0xd8, 0x59, 0x16, 0x18, 0xe3, 
    0xdb, 0x12, 0x4c, 0x56, 0x1f, 0xbe, 0x98, 0x34, 0xe3, 0x9e, 0xc4, 0xd4, 
    0x7c, 0x07, 0xb0, 0xfb, 0x8d, 0xf6, 0x32, 0xee, 0x08, 0x70, 0x23, 0x96, 
    0x08, 0xed, 0x5a, 0xe2, 0x6d, 0xc8, 0x2a, 0x47, 0x2f, 0x6c, 0xda, 0x8d, 
    0xba, 0x58, 0xb0, 0x35, 0xe1, 0x4d, 0x45, 0xcb, 0xd2, 0xd9, 0xc5, 0xa1, 
    0x36, 0x0d, 0xd6, 0xaf, 0xf9, 0x2f, 0x60, 0xe6, 0xcf, 0x9f, 0x62, 0x68, 
    0x84, 0x79, 0x56, 0xfe, 0x67, 0xf3, 0x7f, 0x46, 0x09, 0x18, 0x5f, 0xf4, 
    0x17, 0x56, 0x64, 0x0e, 0x7a, 0x36, 0xcf, 0x1e, 0x0f, 0x71, 0x8b, 0x48, 
    0xdc, 0x9f, 0x6a, 0x92, 0x09, 0x64, 0x18, 0x29, 0xc1, 0x09, 0x24, 0xa2, 
    0x1e, 0x3e, 0x05, 0x0e, 0xcf, 0xc5, 0x62, 0xe3, 0x73, 0xa1, 0x8d, 0xe2, 
    0x00, 0x8e, 0x5c, 0x0e, 0x43, 0x1d, 0x28, 0x7f, 0xa1, 0x53, 0xcd, 0xd8, 
    0xf4, 0x05, 0xef, 0x46, 0x4b, 0x23, 0x92, 0x71, 0x51, 0x23, 0xd3, 0x27, 
    0x9a, 0xb4, 0x1b, 0x11, 0x1b, 0x0a, 0xb9, 0xd6, 0x87, 0xe3, 0x8c, 0xe1, 
    0x83, 0xd0, 0xa9, 0x08, 0xab, 0x65, 0x67, 0x26, 0x8f, 0x30, 0x12, 0xe9, 
    0xa8, 0x1b, 0x54, 0xaf, 0xa6, 0xc7, 0x3e, 0xd4, 0x20, 0xbc, 0x36, 0xc9, 
    0x7f, 0xc3, 0x89, 0x89, 0x68, 0xf0, 0x12, 0xba, 0x35, 0x12, 0x4c, 0xcf, 
    0x8c, 0x19, 0xcd, 0x2a, 0xaf, 0xa9, 0x27, 0x51, 0x4c, 0xa1, 0x1f, 0x45, 
    0xd7, 0x95, 0x49, 0x44, 0x3b, 0xb4, 0x36, 0x10, 0xe1, 0x53, 0x97, 0x0e, 
    0x7f, 0xc6, 0x5f, 0xa1, 0x57, 0xcc, 0xdf, 0xbc, 0x52, 0x65, 0x1c, 0xbf, 
    0x62, 0xe7, 0x12, 0x65, 0xcc, 0x2f, 0xd3, 0x53, 0xe0, 0x36, 0x98, 0xde, 
    0x9c, 0xf1, 0x62, 0x6b, 0xd2, 0x68, 0x50, 0x1d, 0x5c, 0x9d, 0xe5, 0xbb, 
    0xca, 0x23, 0xba, 0x76, 0x61, 0x43, 0xde, 0x17, 0x4f, 0x2f, 0xfb, 0x56, 
    0x9f, 0x0b, 0xb6, 0x73, 0x71, 0x53, 0x69, 0x25, 0xd1, 0x51, 0x9c, 0xb3, 
    0x6c, 0x56, 0xb3, 0x61, 0x5b, 0xd3, 0xa4, 0xb5, 0x12, 0x23, 0xfc, 0x54, 
    0x6d, 0x1d, 0x30, 0x9f, 0x4e, 0xcf, 0x41, 0x0b, 0x46, 0xeb, 0x34, 0xe4, 
    0x13, 0xe1, 0x56, 0xca, 0xd4, 0x14, 0x7f, 0x6a, 0xab, 0x2e, 0x0e, 0x69, 
    0xed, 0x11, 0x00, 0x39, 0x05, 0xc7, 0x34, 0xfb, 0xd0, 0x76, 0x60, 0xad, 
    0x32, 0xaf, 0xce, 0x9b, 0x33, 0x7f, 0x63, 0xdd, 0xd4, 0xa5, 0x2b, 0x87, 
    0xac, 0x63, 0x3c, 0xe6, 0x18, 0xe9, 0x98, 0x0c, 0x79, 0x31, 0x76, 0xed, 
    0xd3, 0xdb, 0x4c, 0x75, 0x55, 0xa6, 0x62, 0x4d, 0x82, 0x2e, 0x8a, 0xb7, 
    0x8e, 0x53, 0x75, 0xd2, 0x99, 0x1d, 0xd2, 0xc9, 0x54, 0x0b, 0xe2, 0xfa, 
    0x32, 0x21, 0xfb, 0x17, 0xdd, 0x30, 0x34, 0x03, 0x62, 0x86, 0xb0, 0x70, 
    0x29, 0x75, 0xdc, 0xde, 0x43, 0xd3, 0x63, 0x23, 0x15, 0xea, 0xee, 0x34, 
    0xd6, 0x2d, 0x50, 0x13, 0x81, 0xd8, 0xf3, 0x4f, 0xf2, 0x2a, 0x30, 0xc2, 
    0xa6, 0xa3, 0xbd, 0xf7, 0x6e, 0x8c, 0x0d, 0x30, 0xc8, 0x8d, 0xf6, 0xa8, 
    0xdc, 0xf1, 0xcf, 0x2d, 0x00, 0x52, 0x11, 0xd5, 0xb2, 0x54, 0x5a, 0xce, 
    0xe3, 0xd3, 0xbf, 0xc7, 0xb5, 0x00, 0x98, 0x72, 0xea, 0x3f, 0x5d, 0x69, 
    0xc1, 0xfa, 0x2b, 0xc9, 0xb8, 0x99, 0x38, 0x63, 0x25, 0xb9, 0xbc, 0x21, 
    0xd3, 0x02, 0x23, 0xf3, 0xe1, 0xf8, 0xbc, 0x8f, 0x26, 0xf0, 0xd9, 0x68, 
    0xd1, 0x19, 0x4d, 0x17, 0x13, 0x28, 0x9c, 0x33, 0xf9, 0xa4, 0xd5, 0xaf, 
    0xa5, 0x6f, 0x97, 0xa0, 0xc1, 0xc4, 0xfe, 0xc0, 0x9d, 0x44, 0x8c, 0xca, 
    0x02, 0x94, 0xa6, 0xda, 0xbc, 0x99, 0x0b, 0x31, 0x4e, 0xe4, 0xda, 0x4e, 
    0xe8, 0x81, 0x39, 0xef, 0x95, 0x36, 0x2a, 0x1e, 0xea, 0x00, 0x46, 0x33, 
    0x9d, 0x0a, 0x2a, 0xc0, 0xea, 0xf6, 0xf2, 0x0f, 0x03, 0xe5, 0xaa, 0xcd, 
    0x41, 0x31, 0x1f, 0x3b, 0x52, 0x7c, 0x81, 0x9c, 0x95, 0x52, 0x5b, 0x2d, 
    0x21, 0xa4, 0xc2, 0x84, 0xcd, 0x48, 0xf4, 0xdf, 0x99, 0x63, 0x05, 0xe1, 
    0x2b, 0x70, 0xfd, 0x31, 0x55, 0x25, 0xa5, 0xc0, 0x17, 0xa4, 0xa1, 0x07, 
    0x2e, 0xc4, 0xcc, 0x33, 0xe7, 0x87, 0x2d, 0xd5, 0x1f, 0x3b, 0x33, 0x4f, 
    0x04, 0xc5, 0xc9, 0x53, 0x1b, 0x8a, 0x93, 0xbf, 0xd2, 0xe0, 0xfb, 0x85, 
    0xfc, 0xa3, 0xf3, 0xa9, 0xd7, 0xdb, 0x16, 0x0b, 0xff, 0xc7, 0x9d, 0xe4, 
    0xd9, 0x2f, 0x36, 0x6e, 0x7f, 0x1b, 0x12, 0x40, 0xa9, 0x9c, 0x36, 0xfc, 
    0x9e, 0x19, 0x07, 0x9e, 0xf4, 0xdd, 0x44, 0xdd, 0x16, 0x35, 0x2b, 0xb4, 
    0x20, 0x74, 0x90, 0xd7, 0x4c, 0xb8, 0x1b, 0x00, 0x88, 0x47, 0xc5, 0xdf, 
    0xe7, 0xcc, 0x91, 0x4c, 0x29, 0xec, 0x1f, 0x9d, 0x43, 0x67, 0x4d, 0xe6, 
    0xf0, 0x8e, 0x57, 0x77, 0xee, 0xd8, 0x96, 0x14, 0xbc, 0xa5, 0x39, 0x43, 
    0x53, 0xf9, 0x19, 0x39, 0xd8, 0xc1, 0xaa, 0xfb, 0x7a, 0x4e, 0x65, 0xe5, 
    0x29, 0x33, 0xb8, 0xf7, 0x3f, 0x0b, 0xd0, 0xbd, 0x01, 0x8e, 0x68, 0xd5, 
    0x99, 0x74, 0x8b, 0xb4, 0x41, 0x31, 0x34, 0x7a, 0x22, 0x0d, 0x02, 0x81, 
    0xcb, 0x78, 0xa3, 0xf5, 0x2e, 0x1a, 0x57, 0x48, 0x0d, 0x3a, 0xa6, 0xec, 
    0x1a, 0xcf, 0x36, 0x2f, 0x58, 0xf2, 0x57, 0x8a, 0x9a, 0x78, 0xd0, 0x61, 
    0x4c, 0xbb, 0x11, 0x77, 0xfb, 0x4e, 0x84, 0x00, 0xce, 0xf5, 0xb5, 0x10, 
    0x0b, 0x34, 0x1c, 0xd6, 0x57, 0x92, 0x14, 0xec, 0xce, 0x36, 0x73, 0xd5, 
    0x97, 0xdd, 0xbc, 0x46, 0x16, 0x7f, 0x1d, 0xa4, 0x8c, 0x50, 0x69, 0xff, 
    0x63, 0x18, 0x9a, 0x91, 0x2b, 0x36, 0xd0, 0x97, 0x2e, 0x2e, 0x76, 0x77, 
    0x8a, 0x36, 0x86, 0x6a, 0x09, 0xe2, 0x71, 0x97, 0xd6, 0x68, 0xb1, 0xf8, 
    0xfd, 0x42, 0x62, 0x77, 0x92, 0x9f, 0xb8, 0xd4, 0x05, 0xa1, 0x6f, 0xe2, 
    0x7f, 0xe1, 0x00, 0x2a, 0x39, 0x02, 0x19, 0x29, 0x68, 0x78, 0x07, 0xe1, 
    0x61, 0x9c, 0xaf, 0x4c, 0x22, 0x12, 0x3d, 0xfa, 0x1f, 0x38, 0xe4, 0x51, 
    0x03, 0x43, 0xe3, 0xf2, 0x21, 0x46, 0x40, 0xde, 0xc2, 0xc5, 0xf9, 0x81, 
    0xf2, 0xd8, 0xb6, 0x6b, 0xa0, 0xe2, 0x47, 0xe7, 0x87, 0xbf, 0xc3, 0x7b, 
    0x5f, 0x2e, 0xf9, 0xab, 0x2f, 0x6c, 0xd9, 0x2b, 0x0f, 0x78, 0xb8, 0xa3, 
    0xf8, 0xca, 0x1a, 0x52, 0xd9, 0xc9, 0x29, 0x37, 0x28, 0x9e, 0x51, 0x09, 
    0xe1, 0x8a, 0xbf, 0xf5, 0xf8, 0xc3, 0x24, 0x1f, 0xb7, 0x08, 0xee, 0x19, 
    0x9c, 0xc6, 0x5d, 0xc6, 0xef, 0xea, 0x47, 0x07, 0xed, 0x55, 0x2e, 0xb5, 
    0x6d, 0x1b, 0xd7, 0xcd, 0x18, 0xe5, 0x7f, 0xb5, 0x53, 0xfc, 0xeb, 0xaa, 
    0xce, 0x92, 0x96, 0xa1, 0xdc, 0x28, 0xdd, 0x16, 0x4a, 0x28, 0xa3, 0xf0, 
    0xee, 0xf7, 0x57, 0x3b, 0x09, 0xe4, 0xac, 0x6f, 0x91, 0x54, 0x27, 0x6f, 
    0xe0, 0x38, 0xf1, 0xc9, 0x27, 0xf6, 0xec, 0x73, 0xe0, 0x13, 0x46, 0x06, 
    0xd3, 0xa4, 0x61, 0xf7, 0x1b, 0x58, 0x08, 0xf9, 0xaa, 0xa7, 0xe6, 0x2a, 
    0x17, 0xc8, 0x39, 0xe1, 0xb5, 0x69, 0x43, 0xa0, 0x30, 0x05, 0x7f, 0x04, 
    0xc6, 0x15, 0xa4, 0x79, 0xe4, 0xcd, 0x43, 0xed, 0x8b, 0xe8, 0xb0, 0x9b, 
    0x18, 0x44, 0x9f, 0x7a, 0xc6, 0xce, 0x0d, 0xa7, 0x10, 0x0d, 0x15, 0xf6, 
    0x61, 0x43, 0x40, 0x66, 0x51, 0x14, 0x4b, 0x5f, 0xa7, 0x8f, 0xad, 0xf0, 
    0xd2, 0xab, 0x01, 0x88, 0x08, 0x5b, 0x11, 0x5c, 0xff, 0x40, 0x08, 0xc0, 
    0x3a, 0x48, 0x47, 0x55, 0xde, 0x55, 0x9f, 0xe1, 0xf8, 0x0d, 0xa9, 0x70, 
    0x76, 0x5a, 0x94, 0x3c, 0xb7, 0xa4, 0x0f, 0x47, 0x81, 0x69, 0x48, 0x59, 
    0x90, 0x63, 0xcc, 0x8a, 0xe5, 0xed, 0x5f, 0xc4, 0xc9, 0xea, 0x0a, 0xde, 
    0x07, 0xdd, 0xbc, 0x3f, 0x70, 0xee, 0x3d, 0xd5, 0xc3, 0x1e, 0x4d, 0x5e, 
    0xa0, 0xc6, 0x90, 0x49, 0x54, 0x22, 0xac, 0x93, 0x67, 0xd8, 0xb2, 0xa9, 
    0xdf, 0x74, 0xe5, 0x28, 0x81, 0x68, 0x0c, 0xde, 0x4a, 0x87, 0x7b, 0xde, 
    0x8b, 0xf9, 0x9c, 0x5d, 0xdc, 0x75, 0xbf, 0xee, 0x48, 0xfe, 0x48, 0xa8, 
    0x5f, 0xcd, 0x2c, 0x9f, 0xd9, 0xe7, 0xb5, 0xda, 0x2e, 0x58, 0xbd, 0xaf, 
    0xb2, 0x5d, 0xd1, 0xb1, 0x39, 0xe0, 0xf4, 0x62, 0xb3, 0xc0, 0xfb, 0x8b, 
    0x70, 0xc9, 0x36, 0xe1, 0x89, 0x3f, 0x04, 0xfe, 0xab, 0x09, 0x4c, 0x81, 
    0x3a, 0xe2, 0x55, 0x8d, 0x08, 0x6d, 0x38, 0x98, 0x95, 0xd5, 0x99, 0x8c, 
    0xfa, 0xda, 0x67, 0xcd, 0x22, 0xf1, 0x23, 0x40, 0x99, 0xcc, 0x1b, 0x03, 
    0xc2, 0x9d, 0x4c, 0x62, 0x89, 0x44, 0x18, 0xc6, 0x73, 0x65, 0xf6, 0x8f, 
    0xe8, 0xf4, 0xd5, 0x32, 0x22, 0xce, 0x99, 0x66, 0xcc, 0xec, 0xf0, 0x0e, 
    0x07, 0x3f, 0x4a, 0x30, 0xa9, 0xdd, 0xb5, 0xb5, 0x93, 0x37, 0x81, 0x5a, 
    0xaf, 0x0a, 0x20, 0xf8, 0x02, 0xbb, 0x4d, 0xf7, 0x69, 0x53, 0xf2, 0x35, 
    0x07, 0xdf, 0x26, 0x3c, 0xc0, 0x0c, 0x6d, 0x8a, 0x87, 0x05, 0x09, 0x88, 
    0x36, 0xca, 0x90, 0x41, 0x32, 0xfa, 0xd5, 0xa4, 0xc2, 0x52, 0x90, 0xa6, 
    0x9b, 0x69, 0x7f, 0x6e, 0x75, 0xc4, 0x55, 0xbe, 0x03, 0x99, 0x88, 0x5b, 
    0x1b, 0xfc, 0x91, 0xb4, 0x08, 0x34, 0x0a, 0x9b, 0xdf, 0x72, 0x3f, 0xb6, 
    0x07, 0x14, 0x5f, 0x99, 0x4b, 0xd1, 0x0d, 0x95, 0xf8, 0xf0, 0x9d, 0x7f, 
    0x54, 0xdf, 0xa0, 0xc3, 0x88, 0xcc, 0x3f, 0x8b, 0x16, 0x6d, 0x53, 0x2d, 
    0xcd, 0x45, 0x60, 0x20, 0x9b, 0x8b, 0xff, 0x42, 0x55, 0x05, 0x4a, 0xd8, 
    0xcc, 0xc0, 0x89, 0xae, 0xd0, 0xe6, 0xca, 0x28, 0x76, 0x30, 0xdb, 0xbf, 
    0x62, 0x0f, 0xdb, 0x0a, 0x5a, 0x55, 0x44, 0xeb, 0x8e, 0x44, 0x75, 0x10, 
    0x67, 0xd3, 0x8a, 0x07, 0x89, 0x5d, 0x53, 0xb4, 0x88, 0xe6, 0x21, 0x4c, 
    0xc4, 0x28, 0xbb, 0xa9, 0x07, 0xf2, 0xca, 0xb9, 0x57, 0x83, 0x64, 0xbd, 
    0x79, 0xf4, 0xf5, 0xcf, 0x0a, 0x9d, 0x4e, 0xd5, 0x78, 0x65, 0x96, 0x56, 
    0x6c, 0x45, 0xa9, 0x1f, 0x53, 0xbe, 0x22, 0xb6, 0x7e, 0x55, 0x8d, 0xd2, 
    0x57, 0xda, 0x81, 0x95, 0x09, 0x0c, 0xb1, 0x39, 0x7f, 0x09, 0x1a, 0xca, 
    0x09, 0x74, 0x28, 0x5f, 0x55, 0xa7, 0xcf, 0xbf, 0xe4, 0x13, 0x69, 0x7b, 
    0x45, 0xfd, 0xc3, 0x28, 0xeb, 0xd8, 0xea, 0xbf, 0x91, 0xbc, 0xe1, 0x22, 
    0x9b, 0xb7, 0x44, 0x54, 0x55, 0xd8, 0xdd, 0xcc, 0xc7, 0x4e, 0x24, 0x35, 
    0xe3, 0x4b, 0x4d, 0x81, 0x38, 0x04, 0xa9, 0xfe, 0xaa, 0x22, 0xff, 0xb8, 
    0x0f, 0x44, 0x35, 0xc2, 0x21, 0xae, 0xc3, 0xaf, 0x5d, 0xd9, 0x5c, 0xc5, 
    0xb4, 0x58, 0x0c, 0x3c, 0x52, 0xb3, 0xb6, 0x36, 0xee, 0x02, 0x3b, 0x53, 
    0x54, 0x2f, 0x07, 0xb4, 0x9d, 0xb7, 0x17, 0x05, 0xaf, 0xe9, 0xce, 0x38, 
    0x2d, 0xe9, 0xaf, 0xcd, 0xf9, 0x32, 0x5a, 0xdf, 0xe1, 0xa4, 0xc8, 0xf0, 
    0xfa, 0x8d, 0x3a, 0xbe, 0xf0, 0xfd, 0x48, 0x88, 0x06, 0xa0, 0x81, 0xb3, 
    0xd9, 0x16, 0xd8, 0x37, 0x21, 0x43, 0x5b, 0xd4, 0x07, 0xb8, 0xca, 0x48, 
    0x4b, 0x13, 0x41, 0xee, 0xdb, 0xf9, 0xa7, 0x57, 0x56, 0x25, 0x42, 0xdb, 
    0x07, 0x0a, 0xaa, 0x66, 0x2b, 0x5c, 0xac, 0xa7, 0xd9, 0x12, 0x9b, 0x9e, 
    0x48, 0x52, 0x3a, 0xf7, 0x06, 0x51, 0x25, 0x53, 0x48, 0x0c, 0x2b, 0x15, 
    0x46, 0x99, 0x3c, 0xc2, 0xd7, 0xc6, 0x14, 0xf2, 0xa7, 0xeb, 0x51, 0xe7, 
    0x2e, 0x52, 0xe6, 0x47, 0xb6, 0xfb, 0x64, 0x27, 0x57, 0x34, 0xb8, 0xca, 
    0xe7, 0x4b, 0x1f, 0xd8, 0x00, 0xb6, 0x98, 0xe1, 0xf0, 0x2a, 0xed, 0xa3, 
    0x3e, 0x7f, 0x63, 0xc1, 0x3e, 0x08, 0xdd, 0xc8, 0xa9, 0x17, 0x4d, 0x08, 
    0xa6, 0x94, 0x4e, 0xe8, 0x5e, 0x67, 0xac, 0x38, 0xbf, 0x3c, 0x18, 0x46, 
    0x45, 0x31, 0x9a, 0xaf, 0xcd, 0xab, 0xda, 0xfe, 0x20, 0x22, 0x71, 0x50, 
    0x00, 0xa6, 0xa8, 0xd8, 0xe8, 0xda, 0xf2, 0x98, 0x54, 0xb4, 0xcb, 0xa7, 
    0x39, 0xdc, 0x3d, 0xf3, 0xf0, 0x14, 0xc9, 0x06, 0x30, 0xaa, 0x63, 0x51, 
    0xc2, 0x36, 0xb9, 0xe3, 0xf7, 0x9c, 0x10, 0xa4, 0x87, 0xe2, 0x90, 0xdb, 
    0xfd, 0x7f, 0xc1, 0xe5, 0x8e, 0xfe, 0xbd, 0x75, 0xd5, 0x3d, 0x0f, 0xce, 
    0x0d, 0xb8, 0x31, 0xa8, 0x74, 0xb7, 0x93, 0xf1, 0x23, 0x06, 0xd1, 0x48, 
    0xa4, 0xa2, 0x06, 0x4a, 0x5c, 0x9d, 0xf1, 0x0b, 0xb6, 0xd0, 0x7b, 0x1f, 
    0x36, 0xfb, 0x1e, 0xf5, 0x63, 0x6e, 0x0a, 0x36, 0x9c, 0xdb, 0x72, 0x44, 
    0x89, 0x1b, 0xc0, 0x7f, 0x65, 0x4b, 0x09, 0x2d, 0xae, 0xe4, 0x4a, 0xfb, 
    0x85, 0xd2, 0xf4, 0x6e, 0xb4, 0x6f, 0xd3, 0xb0, 0xe8, 0x19, 0x44, 0xc1, 
    0x73, 0x42, 0x9b, 0xef, 0x7d, 0xf8, 0xb9, 0x38, 0xfb, 0x6b, 0x00, 0xf6, 
    0x7c, 0x56, 0x62, 0x9f, 0x9f, 0x52, 0xe4, 0xe5, 0xcb, 0x54, 0x84, 0x89, 
    0x0a, 0x14, 0x41, 0x8c, 0x9f, 0x1e, 0xcd, 0xd4, 0x1d, 0x8c, 0xab, 0x0e, 
    0x8f, 0x89, 0xa4, 0x72, 0xb2, 0x3b, 0x19, 0xab, 0xdd, 0x21, 0xd7, 0x83, 
    0xc8, 0xb5, 0xe4, 0xaf, 0xbe, 0xb7, 0x25, 0xb7, 0xf9, 0x92, 0x25, 0x59, 
    0xeb, 0x24, 0x1d, 0x17, 0x18, 0x3e, 0xa5, 0x90, 0x3b, 0x2d, 0x3f, 0x07, 
    0x5d, 0x35, 0x03, 0xb8, 0xc9, 0xa7, 0x81, 0x64, 0x19, 0x7d, 0x1a, 0xd8, 
    0x3e, 0xd5, 0xa2, 0xca, 0xeb, 0x7c, 0x4a, 0x0b, 0x3f, 0x9d, 0x9f, 0x52, 
    0xdd, 0xe2, 0xcc, 0x3d, 0xd2, 0x6b, 0xfc, 0x00, 0xf3, 0x60, 0xba, 0x11, 
    0x50, 0x70, 0xf6, 0xf5, 0x32, 0xd1, 0x59, 0xbe, 0x35, 0x01, 0x45, 0xce, 
    0xc1, 0xdc, 0x05, 0x51, 0x42, 0xfb, 0x05, 0x40, 0x7e, 0x35, 0x9e, 0x1e, 
    0x9e, 0xfe, 0xfa, 0x55, 0xaa, 0xe6, 0xb5, 0x41, 0xca, 0x65, 0x81, 0x4c, 
    0xf7, 0xf7, 0x0b, 0x90, 0xcd, 0xbc, 0x46, 0xdd, 0x0d, 0x74, 0xdc, 0xd3, 
    0x08, 0x40, 0x74, 0xad, 0xb5, 0xc5, 0x48, 0x2e, 0x5f, 0xb6, 0xdd, 0x0a, 
    0x69, 0x54, 0x00, 0x7f, 0x4c, 0x9a, 0x07, 0x48, 0xbf, 0x60, 0x3b, 0x4b, 
    0x72, 0xf4, 0xea, 0x79, 0x66, 0xa1, 0x23, 0xfb, 0x9a, 0x47, 0xe1, 0xe4, 
    0xf6, 0xe5, 0xcf, 0x3d, 0x50, 0x7c, 0xad, 0x90, 0x1e, 0xe6, 0x92, 0x9b, 
    0xda, 0xea, 0x07, 0x3b, 0xb2, 0xc7, 0xbf, 0x40, 0x41, 0x25, 0x67, 0xdd, 
    0x0c, 0x00, 0x02, 0x88, 0xc0, 0x3e, 0x6c, 0x05, 0x2b, 0x72, 0x0b, 0x3a, 
    0xf5, 0x6d, 0x3a, 0x22, 0x45, 0x56, 0x68, 0x13, 0x8d, 0x1e, 0xb3, 0xec, 
    0x18, 0xd8, 0x54, 0x56, 0xfe, 0xed, 0x26, 0xcf, 0x67, 0x03, 0x2f, 0x3a, 
    0xbb, 0xfb, 0xad, 0xa1, 0xa0, 0x69, 0x01, 0x27, 0x38, 0xdd, 0x09, 0x76, 
    0x19, 0x65, 0x3c, 0x7c, 0xf7, 0x70, 0x1d, 0x7d, 0x31, 0x05, 0x44, 0xe2, 
    0x62, 0xff, 0x81, 0xd0, 0x0b, 0xa7, 0xb1, 0x65, 0x4e, 0x32, 0x30, 0xbd, 
    0x51, 0x1d, 0xed, 0x0d, 0xa2, 0x5b, 0xd3, 0x51, 0xdd, 0x09, 0x8a, 0x33, 
    0x06, 0x1a, 0xd2, 0x1d, 0xa1, 0xfb, 0x7f, 0xcb, 0x1c, 0x32, 0x36, 0x9a, 
    0xe1, 0xff, 0xf5, 0x98, 0x4d, 0x9f, 0x2e, 0x34, 0x18, 0x2d, 0xbf, 0x0c, 
    0xd7, 0xae, 0x94, 0x20, 0x53, 0x55, 0x0b, 0xfc, 0x05, 0xbf, 0x07, 0x46, 
    0x57, 0x1e, 0xff, 0x6b, 0x9d, 0xab, 0xbf, 0x91, 0x65, 0x88, 0xf1, 0x15, 
    0x71, 0x4f, 0x9a, 0x9c, 0x08, 0x9e, 0x8f, 0x26, 0x56, 0x1a, 0x2a, 0xbe, 
    0x3a, 0xcc, 0x1b, 0x51, 0xcf, 0xbe, 0x9e, 0xa1, 0xb5, 0x9b, 0xa2, 0x08, 
    0x06, 0x81, 0xb0, 0x22, 0xc1, 0xa5, 0x36, 0xbf, 0x4b, 0xaa, 0xe0, 0xc7, 
    0x0c, 0xcd, 0x28, 0xae, 0x46, 0x0b, 0x22, 0x50, 0xc3, 0xee, 0xb7, 0x32, 
    0x12, 0xbe, 0x31, 0x25, 0x31, 0xc2, 0x3c, 0xb9, 0x21, 0xa3, 0xac, 0x26, 
    0xa3, 0x4c, 0xf6, 0xda, 0xf3, 0x53, 0x51, 0x1b, 0xb1, 0xc1, 0x42, 0xfb, 
    0x33, 0x32, 0xd4, 0xe8, 0xbf, 0xcf, 0xdf, 0xba, 0xf8, 0xd9, 0x41, 0xef, 
    0xb1, 0x76, 0x7f, 0xf2, 0xc6, 0xaa, 0x5c, 0xa7, 0x16, 0x4b, 0x48, 0x54, 
    0x66, 0xab, 0xe9, 0x39, 0x21, 0xbc, 0x42, 0x20, 0x9d, 0xb0, 0x65, 0x04, 
    0xbc, 0x54, 0x6e, 0x4f, 0x1b, 0xb9, 0x2a, 0x31, 0x9c, 0xaa, 0x65, 0x73, 
    0x49, 0xb0, 0x5c, 0x20, 0xde, 0xca, 0x47, 0x5d, 0x4e, 0xa9, 0x68, 0xfd, 
    0xb2, 0xfc, 0x4f, 0xb4, 0x54, 0xf2, 0xc1, 0xc5, 0x6d, 0xfa, 0x5e, 0xe3, 
    0x47, 0xe6, 0x2c, 0x4e, 0x35, 0x96, 0x8d, 0x2b, 0x63, 0x7f, 0x54, 0xbb, 
    0xf4, 0xad, 0x89, 0x23, 0x54, 0x53, 0xa0, 0x50, 0x27, 0xf4, 0x4e, 0x00, 
    0x9a, 0x20, 0x4f, 0xbe, 0xca, 0x3b, 0x20, 0xd2, 0x85, 0xb9, 0x6c, 0x17, 
    0xef, 0x0d, 0x3c, 0x11, 0x3f, 0x94, 0x11, 0xea, 0xa8, 0xbf, 0x2c, 0xb1, 
    0x55, 0xd3, 0x01, 0xa8, 0x5c, 0x9e, 0x64, 0xf1, 0x58, 0x9e, 0x0a, 0x9b, 
    0x5d, 0x9d, 0xbe, 0x14, 0xe1, 0x4f, 0x1c, 0x58, 0x63, 0x10, 0xf0, 0xf9, 
    0x40, 0x63, 0x48, 0x13, 0xc8, 0xa5, 0x7a, 0x0d, 0x03, 0x12, 0x78, 0xce, 
    0xb5, 0x70, 0x7c, 0xdd, 0x93, 0x31, 0x08, 0x7f, 0x0c, 0xb4, 0x97, 0xa3, 
    0xc9, 0x7b, 0x2d, 0x33, 0xeb, 0x6e, 0x16, 0xa8, 0x8b, 0x41, 0x5d, 0x32, 
    0x09, 0x4a, 0x0c, 0xe3, 0x2e, 0x62, 0x23, 0x89, 0x1a, 0x7f, 0xae, 0xb3, 
    0x81, 0xd5, 0xf7, 0x01, 0x66, 0xc0, 0xa7, 0x14, 0x3e, 0xcd, 0x59, 0xb7, 
    0xf4, 0x05, 0x3c, 0x37, 0x8d, 0x58, 0xe8, 0x6a, 0x97, 0x7f, 0xfb, 0x21, 
    0x17, 0x24, 0xad, 0x5e, 0xff, 0x2b, 0x0f, 0x22, 0x5f, 0x4f, 0xf1, 0xfa, 
    0x3c, 0x12, 0x08, 0xa1, 0xcd, 0xbf, 0xf9, 0x79, 0x4c, 0x8a, 0x68, 0x92, 
    0x4e, 0x96, 0xa6, 0xa4, 0xe4, 0xcb, 0x82, 0xa9, 0x25, 0x27, 0x27, 0xb2, 
    0x14, 0x6a, 0xf2, 0x54, 0x8a, 0x5d, 0x1a, 0xc1, 0x8d, 0x44, 0x05, 0x9b, 
    0xe5, 0xe5, 0xc5, 0x0b, 0xb5, 0x3c, 0xac, 0x31, 0x2f, 0xd6, 0x10, 0x12, 
    0x62, 0xb6, 0x84, 0xd2, 0x2a, 0x9e, 0xf9, 0x03, 0x38, 0xac, 0x26, 0x6f, 
    0x42, 0x59, 0xd2, 0x14, 0x56, 0xcb, 0xab, 0x61, 0x9c, 0xe9, 0xf1, 0xbc, 
    0x7c, 0x81, 0x17, 0x0e, 0x7c, 0x40, 0xa3, 0xd3, 0xdb, 0x85, 0x68, 0xd6, 
    0xb6, 0xdc, 0x60, 0x62, 0x47, 0x4e, 0x1c, 0x00, 0x50, 0xa9, 0xa3, 0xed, 
    0x07, 0xdd, 0xe0, 0x38, 0xb8, 0x4b, 0xc9, 0x09, 0x14, 0x73, 0x54, 0x19, 
    0x15, 0x76, 0x68, 0x45, 0x38, 0xfa, 0x4c, 0x4f, 0x16, 0xbf, 0xe7, 0x01, 
    0xa5, 0xda, 0xd5, 0x02, 0x3e, 0xae, 0x1c, 0x81, 0x5d, 0x14, 0x42, 0xc3, 
    0x10, 0xe9, 0x11, 0xd0, 0xaf, 0x4f, 0x22, 0x49, 0x11, 0xa8, 0x5c, 0xf3, 
    0x26, 0x42, 0xa6, 0x48, 0x66, 0x38, 0x4c, 0xf5, 0xf1, 0x02, 0xf5, 0x3a, 
    0x9d, 0x67, 0x46, 0x1f, 0x3e, 0xe5, 0xf1, 0xd0, 0x31, 0xcc, 0x09, 0x23, 
    0x03, 0x16, 0xcf, 0xfb, 0x26, 0xa4, 0x26, 0x9c, 0xdc, 0x5e, 0x55, 0xb8, 
    0xf0, 0x2a, 0x0f, 0xdf, 0x27, 0x7f, 0xd9, 0x31, 0xb7, 0x1e, 0xe1, 0xc6, 
    0x72, 0xf4, 0x0a, 0xc2, 0x44, 0xe1, 0xf6, 0xd4, 0xa0, 0xd5, 0xe0, 0x09, 
    0xe3, 0xa8, 0x5e, 0xe9, 0x5e, 0xe8, 0x15, 0x8c, 0xbc, 0xfc, 0x10, 0x33, 
    0xf0, 0x4a, 0x01, 0x0e, 0x56, 0x56, 0xb0, 0x28, 0xb1, 0x4b, 0xe1, 0x57, 
    0xfb, 0x76, 0xa6, 0xf1, 0xc7, 0x6b, 0xc6, 0x6b, 0xde, 0xdf, 0x3f, 0x3e, 
    0x33, 0x74, 0x55, 0x1e, 0x6d, 0xc2, 0xf4, 0xec, 0x54, 0x04, 0x34, 0xa3, 
    0x22, 0x2b, 0xdc, 0xc0, 0x22, 0x2c, 0x27, 0xb9, 0x22, 0x0b, 0x60, 0xff, 
    0x64, 0xba, 0x27, 0x68, 0xb9, 0xf7, 0xac, 0x5d, 0xd2, 0x3d, 0x2a, 0xca, 
    0xea, 0x22, 0x84, 0xdd, 0xd7, 0x93, 0x73, 0x43, 0x09, 0xa5, 0xfb, 0x54, 
    0xe3, 0x16, 0x71, 0x01, 0xcf, 0xf1, 0x92, 0xd7, 0x22, 0xd5, 0xee, 0x18, 
    0x3f, 0x9f, 0x7f, 0x9f, 0xe8, 0xa0, 0x9e, 0xda, 0xfa, 0xdb, 0x23, 0x23, 
    0x20, 0xb9, 0xce, 0x45, 0x17, 0x3d, 0x42, 0xb5, 0xe9, 0xec, 0xf1, 0xf6, 
    0x03, 0x11, 0xf6, 0xcd, 0xdc, 0x88, 0x89, 0x16, 0x84, 0x7c, 0x8e, 0xc0, 
    0x4f, 0x58, 0xaf, 0x02, 0x1d, 0x1a, 0x42, 0x29, 0xf2, 0x71, 0xce, 0x67, 
    0x92, 0xbe, 0x40, 0x43, 0x81, 0xbf, 0x1a, 0xa2, 0x77, 0xfc, 0x4b, 0x27, 
    0x23, 0xd3, 0x93, 0xc3, 0xce, 0xb4, 0x86, 0x33, 0x40, 0xe5, 0x96, 0xb5, 
    0x85, 0xc8, 0xc1, 0x39, 0x63, 0xb4, 0x41, 0x17, 0x90, 0x3b, 0xed, 0x92, 
    0x41, 0xa6, 0x1b, 0x06, 0x45, 0x1b, 0x9f, 0x58, 0x99, 0x52, 0xeb, 0x81, 
    0x10, 0x00, 0x5f, 0x3e, 0xdf, 0x70, 0x4e, 0xb8, 0xbd, 0x99, 0x6a, 0x31, 
    0x29, 0x12, 0x97, 0x14, 0x3a, 0xba, 0x70, 0xa1, 0x6c, 0x02, 0x39, 0x4c, 
    0x08, 0x26, 0x54, 0xb9, 0xc1, 0x36, 0x01, 0x5e, 0x22, 0x6d, 0xc3, 0xff, 
    0x3d, 0x1c, 0x14, 0x90, 0x03, 0xd3, 0xb3, 0xdb, 0x1c, 0xd8, 0xf9, 0x97, 
    0xa6, 0xc5, 0x51, 0x0e, 0xa2, 0xe6, 0xff, 0xff, 0x04, 0x00, 0x00, 0x00, 
    0xc0, 0x00, 0x00, 0x00, 0x76, 0x35, 0xff, 0xff, 0x4f, 0x53, 0xff, 0xff, 
    0x06, 0xc0, 0x00, 0x00, 0x05, 0x74, 0xff, 0xff, 0x80, 0xf2, 0xff, 0xff, 
    0x08, 0xb6, 0xff, 0xff, 0xac, 0xba, 0xff, 0xff, 0xe4, 0x96, 0xff, 0xff, 
    0xb0, 0xb2, 0x00, 0x00, 0x92, 0x42, 0x00, 0x00, 0xac, 0xd5, 0xfe, 0xff, 
    0x97, 0x5a, 0x00, 0x00, 0xdf, 0x20, 0x00, 0x00, 0x6f, 0xb4, 0x00, 0x00, 
    0xe3, 0x14, 0x00, 0x00, 0x8e, 0xa2, 0xff, 0xff, 0xed, 0x63, 0xff, 0xff, 
    0x52, 0x9f, 0x00, 0x00, 0x19, 0xaa, 0xff, 0xff, 0x81, 0xdf, 0xff, 0xff, 
    0x37, 0x46, 0xff, 0xff, 0xe2, 0x91, 0xff, 0xff, 0xbd, 0xcf, 0x00, 0x00, 
    0x7f, 0x84, 0x00, 0x00, 0x4f, 0xc8, 0xff, 0xff, 0x1a, 0x0f, 0x00, 0x00, 
    0xec, 0x5d, 0xff, 0xff, 0x9a, 0x95, 0x00, 0x00, 0x3e, 0x7f, 0x00, 0x00, 
    0xaa, 0x29, 0xff, 0xff, 0xd2, 0x6a, 0x00, 0x00, 0x86, 0x9b, 0xff, 0xff, 
    0xf0, 0x48, 0x00, 0x00, 0x35, 0x51, 0xff, 0xff, 0xbb, 0x6e, 0xff, 0xff, 
    0x91, 0x32, 0xff, 0xff, 0x62, 0x8b, 0xff, 0xff, 0x20, 0x4a, 0x01, 0x00, 
    0xb7, 0x70, 0xff, 0xff, 0xf3, 0xa7, 0xff, 0xff, 0x8f, 0x9c, 0xff, 0xff, 
    0xad, 0x58, 0x00, 0x00, 0xc2, 0xf6, 0xff, 0xff, 0xb6, 0xef, 0xff, 0xff, 
    0x87, 0xf6, 0xff, 0xff, 0xfc, 0xe8, 0xff, 0xff, 0xe6, 0x4d, 0x01, 0x00, 
    0x28, 0xfd, 0xff, 0xff, 0x6e, 0xe7, 0xff, 0xff, 0x04, 0x00, 0x00, 0x00, 
    0x80, 0x04, 0x00, 0x00, 0x67, 0xf0, 0x3a, 0x2c, 0x96, 0x27, 0x25, 0xf0, 
    0x02, 0x76, 0x05, 0xf3, 0xbf, 0x56, 0x28, 0x72, 0xc2, 0x81, 0xf9, 0x77, 
    0xe5, 0x4b, 0x77, 0x8b, 0xe0, 0xdc, 0x5c, 0xf9, 0x54, 0xbd, 0x55, 0x27, 
    0xce, 0x2a, 0x9c, 0x2e, 0x61, 0x89, 0xd5, 0xbf, 0xcd, 0x74, 0x02, 0xde, 
    0xa8, 0x55, 0x81, 0xb6, 0x19, 0x67, 0x18, 0x3a, 0xfd, 0x51, 0x75, 0x16, 
    0x2d, 0x01, 0xf7, 0xca, 0x2a, 0xb9, 0x98, 0xdc, 0x29, 0xba, 0xb6, 0x1e, 
    0xc4, 0xa5, 0xea, 0xfe, 0xe3, 0xcb, 0xa4, 0xac, 0x02, 0xfe, 0xdb, 0x8d, 
    0x8f, 0xdc, 0x27, 0xb0, 0x34, 0x60, 0xbf, 0x3f, 0xa0, 0x81, 0x98, 0xb0, 
    0xfb, 0xe6, 0x47, 0x68, 0x2f, 0x77, 0x68, 0x67, 0x7d, 0x11, 0x81, 0xe6, 
    0xdc, 0x69, 0x8a, 0xab, 0xbd, 0x9a, 0xb5, 0x98, 0x57, 0x4c, 0xb2, 0x62, 
    0xec, 0x30, 0x68, 0x54, 0xdb, 0xc5, 0x16, 0x74, 0x32, 0xc1, 0xdb, 0xb7, 
    0xc9, 0x5c, 0xc7, 0x24, 0xf7, 0xed, 0x49, 0x19, 0x8d, 0x1c, 0x5f, 0x17, 
    0xd2, 0x2d, 0x67, 0x4e, 0xcf, 0x23, 0x7c, 0x18, 0xaa, 0xd4, 0x52, 0xe7, 
    0x10, 0x07, 0x65, 0x3e, 0x38, 0xf0, 0xaf, 0x85, 0x29, 0x16, 0x39, 0xf8, 
    0x9a, 0xe4, 0x17, 0x0e, 0xfa, 0x21, 0x56, 0xd1, 0xbd, 0x1e, 0x9e, 0xd3, 
    0x32, 0x6f, 0x38, 0xa8, 0x2a, 0x2e, 0x8a, 0x6c, 0x94, 0x08, 0x42, 0x49, 
    0xdc, 0xb4, 0x7f, 0x78, 0x8f, 0x18, 0x69, 0xad, 0xa8, 0x2e, 0xa8, 0x32, 
    0xac, 0x55, 0xe9, 0x14, 0x32, 0xa5, 0xea, 0x7e, 0xf0, 0x53, 0x5c, 0xc2, 
    0x33, 0x5a, 0xc5, 0xf4, 0xa0, 0x20, 0x02, 0xb2, 0x0c, 0xec, 0xae, 0xbd, 
    0x66, 0x5d, 0x54, 0x09, 0x76, 0xdd, 0x47, 0x61, 0x81, 0x5a, 0x04, 0xb1, 
    0xf6, 0x6d, 0x89, 0x1b, 0x5d, 0xaf, 0x1e, 0xcb, 0x03, 0xc9, 0xf5, 0x43, 
    0x41, 0x7e, 0xc8, 0x24, 0x65, 0x77, 0x09, 0x91, 0x53, 0x79, 0x0b, 0x6d, 
    0x18, 0xb6, 0x9c, 0x7f, 0xce, 0x09, 0xcd, 0xc9, 0xc6, 0xf8, 0x2f, 0x54, 
    0xc9, 0x6d, 0x9b, 0x4f, 0xf2, 0x1c, 0x85, 0x17, 0xf7, 0xca, 0xd9, 0x59, 
    0xeb, 0xf0, 0xf7, 0xed, 0xcc, 0x31, 0xd0, 0x9b, 0x27, 0x07, 0x94, 0xfd, 
    0xd1, 0xfc, 0xd7, 0x3f, 0x48, 0xf3, 0x0c, 0x43, 0x03, 0x04, 0x45, 0x0a, 
    0xe7, 0xa4, 0x24, 0x18, 0x10, 0x02, 0x36, 0x73, 0x5d, 0x00, 0x7f, 0xe8, 
    0xc7, 0xd8, 0x18, 0x2c, 0xcc, 0x17, 0xf2, 0x42, 0xcf, 0x0d, 0x23, 0x41, 
    0xb9, 0xd8, 0xcc, 0xbb, 0x2f, 0xbb, 0x74, 0xd1, 0x53, 0x2c, 0xac, 0x0d, 
    0x49, 0x69, 0xdb, 0xa6, 0x6e, 0x3a, 0x52, 0x7f, 0x40, 0x15, 0x3d, 0x4f, 
    0x28, 0x5a, 0x86, 0xfd, 0x4f, 0xe1, 0x3d, 0xd7, 0xf4, 0xe1, 0xd5, 0xb5, 
    0x10, 0xa0, 0x16, 0xba, 0x4a, 0xd5, 0x02, 0x32, 0x4d, 0xb7, 0xf3, 0x2f, 
    0x35, 0xf0, 0xfd, 0xaf, 0xac, 0x5f, 0x4b, 0x83, 0x6c, 0xb2, 0x96, 0x49, 
    0xf7, 0x36, 0x27, 0x14, 0x17, 0x8e, 0x43, 0x8a, 0x9e, 0xf7, 0x2b, 0xe8, 
    0xc7, 0x39, 0x28, 0x2f, 0x35, 0x45, 0x0f, 0x25, 0xa3, 0x11, 0x7f, 0xa5, 
    0x2a, 0xe5, 0xa2, 0x7f, 0xd5, 0x17, 0x19, 0xc9, 0x0e, 0xaa, 0xf4, 0xce, 
    0xb1, 0x9e, 0x42, 0x31, 0x26, 0xed, 0xc7, 0x20, 0x67, 0xc2, 0x7f, 0x3d, 
    0x0d, 0x0b, 0xbd, 0xd0, 0x9b, 0xb2, 0x62, 0x1e, 0xe5, 0x30, 0x52, 0xbb, 
    0x0e, 0x64, 0xe6, 0xb2, 0x0b, 0x59, 0xcc, 0xd3, 0xa5, 0x2f, 0x70, 0x2b, 
    0x10, 0x0e, 0x60, 0xd6, 0x11, 0x04, 0x94, 0x5e, 0xd6, 0x54, 0x4c, 0x31, 
    0x3e, 0x9f, 0xa6, 0x36, 0xe3, 0xf5, 0x0b, 0xe0, 0x55, 0x49, 0x29, 0x38, 
    0xe0, 0x40, 0x99, 0x3d, 0x5e, 0xc3, 0x4f, 0xca, 0xd9, 0x67, 0x7f, 0xb9, 
    0xcf, 0xce, 0x4c, 0xf8, 0xbe, 0x2e, 0xbc, 0x1f, 0xf2, 0xdc, 0x88, 0x46, 
    0xdd, 0x9a, 0xff, 0xdc, 0x1d, 0x20, 0x6d, 0x4a, 0x5e, 0x1e, 0x45, 0xf0, 
    0xcd, 0xa7, 0xdb, 0xaa, 0x03, 0x8b, 0x76, 0x00, 0x9e, 0x1d, 0xb1, 0x34, 
    0x2e, 0xfb, 0x53, 0x3e, 0x58, 0x07, 0x7f, 0x2a, 0xaf, 0x31, 0x9e, 0x4d, 
    0x89, 0x87, 0x26, 0x16, 0xef, 0xe9, 0x2c, 0x5e, 0x7c, 0xd4, 0x65, 0xdd, 
    0x90, 0xf7, 0x0d, 0x74, 0xd7, 0xcb, 0x92, 0xc7, 0x36, 0x5e, 0x61, 0xcb, 
    0xb1, 0x36, 0xbc, 0x95, 0x4d, 0xad, 0xe9, 0xf4, 0x59, 0x9d, 0xc4, 0x3e, 
    0x48, 0x55, 0xf4, 0x38, 0xaa, 0x46, 0xc1, 0x3e, 0x06, 0xde, 0x9a, 0x04, 
    0x42, 0xb9, 0x30, 0x6c, 0xee, 0x90, 0x0b, 0x54, 0x12, 0xa6, 0x61, 0x5b, 
    0xc0, 0x8a, 0xca, 0x6d, 0xe4, 0x50, 0xfe, 0xfd, 0x33, 0x6a, 0x5d, 0xac, 
    0x12, 0x81, 0x61, 0x40, 0x59, 0xd6, 0x03, 0x1a, 0x13, 0xb3, 0x34, 0x7f, 
    0x0c, 0x26, 0x44, 0xe3, 0xa0, 0x52, 0x3b, 0xad, 0xd3, 0xbc, 0x3e, 0x7f, 
    0xa0, 0x87, 0xb8, 0x33, 0xfe, 0x04, 0xf7, 0x4b, 0x22, 0x28, 0xfb, 0xc6, 
    0x2e, 0x29, 0xc7, 0x32, 0xce, 0x52, 0x03, 0xd9, 0x01, 0x33, 0xfe, 0x54, 
    0x58, 0xc7, 0xcd, 0xb0, 0x81, 0x3c, 0xe8, 0xf3, 0xe4, 0x0a, 0xd3, 0xc3, 
    0x3f, 0xf9, 0xa9, 0x4c, 0x34, 0x1b, 0x59, 0xd5, 0xe8, 0x42, 0x48, 0x32, 
    0xdf, 0x27, 0xa5, 0x67, 0x64, 0xff, 0xde, 0xf0, 0x7c, 0xf5, 0x14, 0x89, 
    0xf6, 0xdf, 0x87, 0x21, 0x58, 0x70, 0x4a, 0xa7, 0x38, 0xf9, 0xc9, 0x9d, 
    0xcf, 0xa5, 0x3e, 0xaa, 0xb2, 0xe6, 0x0a, 0xdb, 0x38, 0x29, 0x47, 0x6d, 
    0x97, 0xee, 0xbc, 0xb6, 0x41, 0x42, 0x9f, 0x50, 0x10, 0xe2, 0xd7, 0x18, 
    0xef, 0x6d, 0xe9, 0x39, 0x90, 0xb6, 0x59, 0xfb, 0xfe, 0xaf, 0xa3, 0x5f, 
    0xa1, 0x7b, 0xd2, 0xa6, 0xc5, 0x10, 0x81, 0x21, 0xb3, 0xbd, 0x22, 0xd3, 
    0xa7, 0x5b, 0x94, 0xc4, 0x2f, 0x39, 0xfa, 0x06, 0x92, 0xd3, 0x75, 0x7e, 
    0x16, 0x04, 0xae, 0x17, 0x85, 0x85, 0x4f, 0x8d, 0xa1, 0x25, 0xb9, 0x0c, 
    0x02, 0x02, 0x15, 0x93, 0x56, 0x4b, 0xe7, 0x0e, 0xbc, 0x81, 0x75, 0x5a, 
    0x07, 0xb9, 0x4b, 0xad, 0x54, 0x82, 0x34, 0x54, 0x0b, 0xac, 0x31, 0xa4, 
    0x3b, 0x25, 0xbf, 0x07, 0xf1, 0x4d, 0x23, 0x98, 0xa1, 0xa2, 0xbe, 0xe6, 
    0x3b, 0xd3, 0x32, 0xc6, 0x5f, 0x30, 0x28, 0x8c, 0x91, 0xe5, 0xae, 0x4f, 
    0x3e, 0xc0, 0x12, 0x91, 0xc4, 0xfc, 0xac, 0x12, 0x3b, 0xd8, 0x9d, 0xf5, 
    0x4e, 0xa9, 0x7f, 0x43, 0xe1, 0x37, 0x91, 0x20, 0xaf, 0xbe, 0xa0, 0x5d, 
    0x88, 0x44, 0x33, 0x6b, 0xdd, 0xc3, 0x4e, 0xec, 0xf5, 0xd6, 0x53, 0x61, 
    0x9e, 0xbc, 0xc0, 0x81, 0x41, 0x2a, 0x2e, 0xc2, 0xa0, 0x0b, 0xa0, 0x7b, 
    0xd9, 0xfe, 0x45, 0x0a, 0xbb, 0xab, 0x41, 0x36, 0xd9, 0xb9, 0x27, 0xae, 
    0x21, 0xc6, 0x03, 0x4e, 0x0e, 0xe0, 0x12, 0x0a, 0xdd, 0xb0, 0x0f, 0xa9, 
    0x0b, 0xc5, 0x39, 0x10, 0xf8, 0xe4, 0x26, 0x1e, 0x30, 0x0c, 0xd7, 0xc6, 
    0x6e, 0x49, 0xe6, 0x62, 0x9a, 0x62, 0xc6, 0x81, 0x6f, 0xcf, 0xbc, 0xdf, 
    0x78, 0x20, 0xe0, 0x1c, 0xc3, 0x67, 0xeb, 0xa0, 0x6d, 0x89, 0x7c, 0x34, 
    0x6e, 0xd3, 0xb7, 0x84, 0x26, 0x53, 0xb9, 0x92, 0x81, 0xa9, 0x16, 0xfe, 
    0xb4, 0x44, 0x5a, 0x54, 0x63, 0x00, 0xd5, 0x37, 0xff, 0x66, 0x24, 0xe5, 
    0x7f, 0xcb, 0x2a, 0x29, 0xdd, 0x25, 0xc4, 0x00, 0xc4, 0x17, 0x81, 0xbd, 
    0x9b, 0x40, 0x92, 0xf3, 0xa7, 0x13, 0x41, 0x94, 0x97, 0x63, 0x2e, 0x82, 
    0xf3, 0x51, 0x18, 0x30, 0x5a, 0x4e, 0x19, 0x2d, 0x1e, 0xcf, 0x62, 0x5b, 
    0xe8, 0xf0, 0xc4, 0x71, 0xb8, 0x98, 0x30, 0xe2, 0xb3, 0xaf, 0x6f, 0x9c, 
    0xa9, 0xbf, 0xaf, 0xda, 0xf2, 0x0b, 0xb9, 0x58, 0xda, 0x73, 0x6e, 0x5f, 
    0xa4, 0x7f, 0xa8, 0xde, 0xc1, 0xc7, 0x96, 0xd2, 0x3b, 0x9e, 0x38, 0xd6, 
    0x86, 0x28, 0xa0, 0xc8, 0x6d, 0xe0, 0xfc, 0x40, 0xd3, 0x88, 0x7b, 0xc6, 
    0xc2, 0xd4, 0x27, 0x90, 0x29, 0x3f, 0xac, 0xce, 0x98, 0x99, 0x1e, 0x53, 
    0xf0, 0x41, 0xcb, 0x0f, 0xa6, 0x6a, 0x00, 0xc3, 0x81, 0xa8, 0x0b, 0xc7, 
    0xb5, 0xaa, 0x3e, 0x30, 0x0d, 0xbc, 0x21, 0xc6, 0x34, 0x28, 0x5a, 0x6a, 
    0x23, 0x5f, 0x03, 0xe2, 0xfc, 0xd3, 0x60, 0xa2, 0xaf, 0x39, 0xa5, 0x70, 
    0x14, 0x2e, 0x45, 0xed, 0x97, 0xad, 0x5e, 0xf3, 0xd2, 0x02, 0xd3, 0xe5, 
    0x87, 0x2c, 0x45, 0x42, 0xd8, 0xf4, 0x24, 0xdd, 0xff, 0xc6, 0xc3, 0x7c, 
    0xbd, 0xc8, 0x04, 0x01, 0x5c, 0x16, 0x97, 0x5f, 0x01, 0x0a, 0x29, 0xf9, 
    0xad, 0x58, 0x5f, 0x55, 0x7f, 0xaa, 0xad, 0xfd, 0x0a, 0x8d, 0x1c, 0xfd, 
    0xe4, 0xdf, 0xb8, 0x35, 0xfa, 0xeb, 0xff, 0xff, 0x04, 0x00, 0x00, 0x00, 
    0x60, 0x00, 0x00, 0x00, 0x50, 0xed, 0xff, 0xff, 0x72, 0x57, 0x00, 0x00, 
    0x57, 0xc4, 0xff, 0xff, 0x32, 0xd4, 0xff, 0xff, 0xee, 0xe7, 0xff, 0xff, 
    0xce, 0xd2, 0xff, 0xff, 0x7e, 0xe9, 0xff, 0xff, 0x27, 0xbe, 0xff, 0xff, 
    0x7b, 0x09, 0x00, 0x00, 0x0f, 0xce, 0xff, 0xff, 0x95, 0xef, 0xff, 0xff, 
    0x1e, 0xf4, 0xff, 0xff, 0xd6, 0xce, 0xff, 0xff, 0x0b, 0xdf, 0xff, 0xff, 
    0x75, 0x04, 0x00, 0x00, 0x63, 0x4c, 0x00, 0x00, 0xad, 0x18, 0x00, 0x00, 
    0xbe, 0x3e, 0x00, 0x00, 0xb1, 0x36, 0x00, 0x00, 0x56, 0xf8, 0xff, 0xff, 
    0x78, 0xe3, 0xff, 0xff, 0x12, 0x79, 0x00, 0x00, 0x9d, 0x07, 0x00, 0x00, 
    0x02, 0x16, 0x00, 0x00, 0x66, 0xec, 0xff, 0xff, 0x04, 0x00, 0x00, 0x00, 
    0x90, 0x00, 0x00, 0x00, 0xf6, 0xe9, 0x72, 0x55, 0x40, 0x62, 0x6d, 0xf0, 
    0x27, 0xc3, 0xfd, 0x7f, 0x7f, 0x52, 0x4b, 0x1c, 0xed, 0x6f, 0x52, 0x7c, 
    0x5e, 0xdb, 0x68, 0x44, 0x81, 0xc7, 0xca, 0xe9, 0xc4, 0xe5, 0xed, 0xc2, 
    0x24, 0xc9, 0x1b, 0xe1, 0x23, 0xe4, 0xd5, 0xf9, 0xcc, 0x25, 0xae, 0xf6, 
    0x96, 0x9b, 0x28, 0xc5, 0x7f, 0x36, 0xe6, 0x5d, 0xf1, 0x08, 0x9f, 0x07, 
    0x1d, 0xc4, 0x10, 0xcd, 0x37, 0xb3, 0x15, 0x02, 0x1d, 0xae, 0xf1, 0x38, 
    0xcd, 0x7c, 0xb1, 0x79, 0xc3, 0xfe, 0x88, 0x9b, 0xe6, 0xdd, 0x36, 0xca, 
    0x22, 0xca, 0xdd, 0xd9, 0xe6, 0x5c, 0xd3, 0x81, 0x47, 0x4a, 0x6f, 0xdd, 
    0x60, 0x40, 0x23, 0x82, 0x28, 0xe2, 0x3c, 0xea, 0xcf, 0xd5, 0xac, 0xf2, 
    0x4c, 0xf4, 0x99, 0xf4, 0xf5, 0x8f, 0x81, 0xd1, 0x72, 0x18, 0xb5, 0xaa, 
    0x62, 0x86, 0x4e, 0x7e, 0x81, 0xc7, 0x63, 0x54, 0x9e, 0x4a, 0x4e, 0xb7, 
    0x22, 0xb3, 0x1b, 0x61, 0x5b, 0x2e, 0x56, 0xa6, 0xe7, 0x3f, 0xe1, 0x63, 
    0xcb, 0xbf, 0x36, 0xb8, 0x02, 0xed, 0xff, 0xff, 0x04, 0x00, 0x00, 0x00, 
    0x90, 0x00, 0x00, 0x00, 0x81, 0x53, 0x2a, 0xba, 0x1f, 0x11, 0x31, 0x81, 
    0x57, 0x18, 0x5c, 0xe5, 0x6a, 0xf7, 0xab, 0x25, 0x81, 0x51, 0x74, 0x5c, 
    0xcd, 0xd5, 0xc5, 0x7f, 0xf8, 0x81, 0xdd, 0xea, 0x28, 0xf7, 0x9b, 0x6e, 
    0x10, 0xfc, 0x7f, 0x18, 0x65, 0x89, 0xe4, 0x22, 0xac, 0x81, 0x03, 0x7f, 
    0x28, 0x79, 0x7a, 0xaf, 0x4f, 0xbb, 0x68, 0x30, 0x41, 0x7f, 0x7c, 0x81, 
    0x47, 0x06, 0x0e, 0x6a, 0x1f, 0x30, 0xa9, 0x81, 0x29, 0x4a, 0x57, 0x3d, 
    0x0a, 0xf8, 0x5a, 0x7f, 0x3f, 0x81, 0x45, 0xd4, 0xcb, 0xad, 0x81, 0x62, 
    0xbc, 0x28, 0x8c, 0x1f, 0xf8, 0x0e, 0x7f, 0x4b, 0xab, 0x93, 0x99, 0xf0, 
    0xff, 0x4c, 0x3d, 0x7f, 0x7f, 0xcd, 0xdc, 0x51, 0x71, 0x58, 0xcb, 0x78, 
    0xee, 0x6f, 0x7f, 0x03, 0xaa, 0x1d, 0x7f, 0x15, 0x63, 0xb0, 0xd2, 0x43, 
    0xc1, 0xa7, 0x58, 0x7f, 0xf3, 0xc3, 0xcc, 0x62, 0xc9, 0x7f, 0x3d, 0x44, 
    0x68, 0x96, 0xd0, 0x7f, 0xee, 0x66, 0xe6, 0x7f, 0xa9, 0x32, 0xdd, 0xd4, 
    0x4f, 0x32, 0xda, 0x81, 0x9e, 0xed, 0xff, 0xff, 0x04, 0x00, 0x00, 0x00, 
    0x60, 0x00, 0x00, 0x00, 0x0c, 0x14, 0x00, 0x00, 0xb2, 0xf3, 0xff, 0xff, 
    0x5b, 0xf1, 0xff, 0xff, 0xd7, 0xf6, 0xff, 0xff, 0x54, 0xf9, 0xff, 0xff, 
    0x4e, 0x16, 0x00, 0x00, 0xbc, 0xee, 0xff, 0xff, 0x1b, 0x0e, 0x00, 0x00, 
    0x88, 0xf3, 0xff, 0xff, 0x15, 0xe6, 0xff, 0xff, 0x5c, 0xfe, 0xff, 0xff, 
    0xc4, 0xf7, 0xff, 0xff, 0x8c, 0xf1, 0xff, 0xff, 0x6e, 0x14, 0x00, 0x00, 
    0x6b, 0x01, 0x00, 0x00, 0x44, 0x09, 0x00, 0x00, 0x7e, 0xf0, 0xff, 0xff, 
    0xaf, 0x13, 0x00, 0x00, 0xe9, 0x0d, 0x00, 0x00, 0x27, 0x08, 0x00, 0x00, 
    0x61, 0xfd, 0xff, 0xff, 0xe0, 0xfa, 0xff, 0xff, 0x14, 0x09, 0x00, 0x00, 
    0x99, 0x03, 0x00, 0x00, 0x0a, 0xee, 0xff, 0xff, 0x04, 0x00, 0x00, 0x00, 
    0x80, 0x04, 0x00, 0x00, 0xa0, 0x86, 0x7f, 0xfa, 0x88, 0xd7, 0xb8, 0x6a, 
    0x9d, 0x09, 0x05, 0x33, 0xef, 0x95, 0x19, 0x67, 0xd9, 0x36, 0xc8, 0xfa, 
    0x1c, 0x4a, 0xbd, 0xfe, 0xd8, 0x03, 0x09, 0x3f, 0x78, 0xe4, 0x13, 0x53, 
    0x8a, 0x60, 0x99, 0xb9, 0x4e, 0xff, 0x16, 0x8d, 0x7f, 0x09, 0x0a, 0x9b, 
    0x85, 0x1f, 0xb9, 0x67, 0x52, 0xac, 0x86, 0xa3, 0x8d, 0x7f, 0xa6, 0x8a, 
    0x20, 0x41, 0x13, 0xf7, 0x0c, 0x53, 0x61, 0x61, 0x8b, 0x54, 0xe8, 0xbf, 
    0x77, 0xa8, 0xe1, 0xd8, 0xba, 0x23, 0x15, 0xc3, 0x61, 0x63, 0x31, 0x7f, 
    0xfa, 0xcd, 0x32, 0xa7, 0x47, 0x2f, 0x09, 0x69, 0xad, 0xeb, 0xd5, 0xc3, 
    0xa4, 0xa0, 0x10, 0xfb, 0x45, 0x16, 0xc7, 0x34, 0x81, 0x2e, 0xf9, 0xea, 
    0x8b, 0x32, 0x28, 0xd7, 0x12, 0xd6, 0x0c, 0xc6, 0x97, 0x23, 0xe0, 0xf2, 
    0x95, 0x4d, 0x32, 0xdb, 0x32, 0xa2, 0xea, 0xe2, 0xa0, 0x59, 0x12, 0xac, 
    0x81, 0xc8, 0x03, 0xf7, 0xd9, 0x61, 0x36, 0x49, 0x0a, 0xff, 0xbe, 0x65, 
    0xed, 0x3f, 0xae, 0xf8, 0x1c, 0x49, 0x81, 0xd1, 0x11, 0x43, 0x3f, 0x6f, 
    0x9b, 0xba, 0x88, 0x69, 0x05, 0xf5, 0x0c, 0x32, 0x3b, 0xa5, 0xfb, 0x89, 
    0x87, 0x33, 0x77, 0x6d, 0x2e, 0xae, 0xad, 0x32, 0xf5, 0x7f, 0xd6, 0x9c, 
    0x97, 0x56, 0x30, 0x2f, 0xbd, 0x73, 0x79, 0x40, 0x84, 0x2b, 0xa6, 0xe6, 
    0x0b, 0xc6, 0xc5, 0xcc, 0x50, 0xef, 0x93, 0x26, 0x0a, 0xae, 0xa4, 0x52, 
    0x81, 0xfc, 0x4b, 0x35, 0xea, 0x6f, 0xf5, 0x4c, 0x2d, 0x07, 0xf9, 0x5d, 
    0xab, 0xd2, 0xef, 0xf4, 0xb3, 0x0b, 0x1d, 0x7f, 0x56, 0x97, 0xd3, 0x54, 
    0x6d, 0x0f, 0x93, 0x4d, 0x50, 0x56, 0x02, 0xc4, 0xf3, 0xc5, 0xea, 0x50, 
    0x6f, 0x00, 0x0d, 0x60, 0xbe, 0x7f, 0x6d, 0xd4, 0x3b, 0xb2, 0x24, 0xaf, 
    0xf6, 0x49, 0x79, 0xc4, 0x6c, 0xf9, 0xe9, 0x6c, 0x33, 0x73, 0x0c, 0x9c, 
    0x31, 0x1d, 0x68, 0x66, 0x59, 0x81, 0xd8, 0x44, 0xef, 0xcb, 0x97, 0x07, 
    0xa2, 0xd9, 0x3d, 0xcc, 0x5c, 0xfb, 0xa1, 0x26, 0xb3, 0xee, 0x30, 0x2e, 
    0x42, 0xbd, 0xfa, 0x19, 0xf1, 0x81, 0x10, 0xc6, 0x95, 0xb9, 0x2d, 0x37, 
    0x72, 0x2c, 0x46, 0x2d, 0x3e, 0xb1, 0x52, 0xf2, 0xff, 0xc4, 0x21, 0x4a, 
    0x64, 0x41, 0x4b, 0xfe, 0xf2, 0x40, 0x12, 0xf0, 0xdf, 0x60, 0xff, 0xc9, 
    0xa7, 0x04, 0x0f, 0xbc, 0x4c, 0xbe, 0xee, 0x36, 0x31, 0xfb, 0xed, 0x36, 
    0x81, 0xb1, 0xd6, 0x33, 0xa2, 0xa3, 0x33, 0x4e, 0x3c, 0x67, 0xb7, 0x5f, 
    0x42, 0x95, 0xcd, 0xcc, 0xbf, 0xb8, 0xd0, 0x27, 0x81, 0xcc, 0xb3, 0xe5, 
    0xfd, 0x95, 0x5b, 0x8d, 0xc1, 0x0b, 0x03, 0x31, 0x8e, 0x42, 0xed, 0xa5, 
    0x6e, 0x4e, 0x1d, 0x7f, 0xca, 0xee, 0xf6, 0x77, 0xc8, 0x2b, 0xe3, 0x95, 
    0xfc, 0x59, 0x6e, 0xd1, 0x45, 0xbe, 0xb7, 0x81, 0x10, 0xb9, 0xff, 0x52, 
    0xfd, 0x44, 0x9d, 0x3e, 0x74, 0x1a, 0x42, 0x9c, 0x25, 0xec, 0x14, 0x0c, 
    0x83, 0x3a, 0x95, 0x31, 0x7f, 0x09, 0x0e, 0x12, 0xdd, 0xd0, 0xd2, 0xbd, 
    0xc1, 0x1f, 0x52, 0xe0, 0xc0, 0x07, 0xa0, 0x12, 0xaa, 0xb5, 0xd1, 0xb2, 
    0x0b, 0x9b, 0xd5, 0xb3, 0xf0, 0x32, 0x2a, 0x3f, 0x11, 0x22, 0xae, 0x81, 
    0x1a, 0xd7, 0x63, 0xb3, 0x06, 0xdc, 0x63, 0x97, 0xed, 0xe3, 0xa3, 0xf0, 
    0x36, 0x31, 0x19, 0xc4, 0x1a, 0xd2, 0x2b, 0xa9, 0xb7, 0x32, 0x33, 0x54, 
    0xb0, 0x16, 0x37, 0x81, 0xda, 0xa4, 0x91, 0x42, 0xfb, 0x22, 0xee, 0x2d, 
    0x21, 0x22, 0x0b, 0x5a, 0x38, 0xb2, 0x24, 0xf9, 0xba, 0xd9, 0xaa, 0x53, 
    0x2e, 0xb5, 0x16, 0x81, 0x1d, 0x89, 0xce, 0xb1, 0xaa, 0xed, 0x50, 0x5b, 
    0x43, 0x8c, 0x13, 0xa7, 0x05, 0x25, 0x3b, 0xf9, 0x44, 0xf4, 0x8d, 0x1b, 
    0x2a, 0x99, 0xd3, 0xcb, 0xb0, 0x7f, 0xb0, 0x04, 0xe9, 0x2a, 0xe0, 0x57, 
    0xd7, 0xf5, 0x9a, 0x68, 0x4f, 0x81, 0xdf, 0xba, 0x89, 0x87, 0x27, 0xb2, 
    0xb6, 0xfa, 0x4a, 0xaa, 0xb2, 0x3d, 0x90, 0xc4, 0xb0, 0x7f, 0x9a, 0xfe, 
    0x96, 0xed, 0x10, 0x2b, 0x97, 0xa1, 0x47, 0x81, 0x59, 0x6d, 0xf0, 0xf7, 
    0xb6, 0x8f, 0xb1, 0x8e, 0x04, 0x93, 0x30, 0x68, 0xe3, 0x51, 0x66, 0x22, 
    0xb5, 0xae, 0x91, 0x83, 0xb2, 0x5f, 0x38, 0xaf, 0x27, 0x7f, 0x63, 0x65, 
    0xd2, 0xb6, 0x90, 0x06, 0x98, 0x7b, 0x11, 0xcb, 0x86, 0xf1, 0xa8, 0xd2, 
    0x18, 0xc6, 0xd7, 0x24, 0x4a, 0xd0, 0xfd, 0x3d, 0xfc, 0xff, 0x81, 0xe5, 
    0x56, 0x58, 0xcc, 0xdc, 0xab, 0xba, 0x9d, 0x41, 0xb6, 0x3c, 0x11, 0x39, 
    0x7c, 0x25, 0xbb, 0x25, 0xc7, 0xfa, 0xd7, 0xbb, 0xef, 0x4f, 0xae, 0xe9, 
    0xa1, 0x77, 0x3c, 0xd0, 0x81, 0x4c, 0x17, 0x94, 0x81, 0x58, 0xbb, 0x99, 
    0x26, 0x07, 0x5c, 0xe1, 0x14, 0xe6, 0x23, 0x21, 0x5d, 0x6f, 0x81, 0x27, 
    0xa9, 0xf6, 0x83, 0xf0, 0x83, 0x4e, 0x88, 0xa3, 0x3d, 0x62, 0x33, 0xa3, 
    0xbd, 0x50, 0x3a, 0x30, 0x7f, 0x86, 0x45, 0xc2, 0xaa, 0xd6, 0x2d, 0xf2, 
    0x16, 0x01, 0xb5, 0xf4, 0x82, 0x3d, 0x49, 0xf5, 0x28, 0x49, 0x34, 0x1f, 
    0x17, 0x37, 0xb9, 0x3d, 0xd0, 0x38, 0x7f, 0x40, 0xe2, 0x43, 0xef, 0xe9, 
    0x13, 0x0d, 0x51, 0x31, 0x6f, 0x28, 0x18, 0x1b, 0xbf, 0x86, 0x22, 0xf6, 
    0x05, 0x0c, 0x4d, 0x18, 0xcf, 0x6d, 0x40, 0xef, 0x06, 0x92, 0xfd, 0xb2, 
    0xfe, 0xf3, 0xe8, 0xc5, 0xea, 0x5b, 0x31, 0xad, 0x67, 0x81, 0x14, 0x0c, 
    0x31, 0x7e, 0xff, 0x50, 0x27, 0x54, 0x45, 0x10, 0x4d, 0x5a, 0x9a, 0xf6, 
    0x68, 0x17, 0xc5, 0x11, 0xdf, 0x08, 0xd5, 0xe5, 0x04, 0x5a, 0xc1, 0x6a, 
    0x67, 0x7f, 0x54, 0xee, 0x3b, 0x94, 0x93, 0x25, 0x45, 0xc5, 0x36, 0xd1, 
    0x81, 0x1d, 0x08, 0x24, 0x9e, 0xd6, 0x3f, 0x33, 0x23, 0x5a, 0xa2, 0xcd, 
    0xe7, 0xae, 0xfc, 0xb1, 0xb1, 0x20, 0x6b, 0xc6, 0x02, 0xbb, 0x10, 0xfd, 
    0x18, 0x5a, 0xa5, 0x71, 0x28, 0x18, 0x08, 0x9b, 0x49, 0x9e, 0xd1, 0xfc, 
    0xbb, 0x17, 0x15, 0x7f, 0x7e, 0xc2, 0xa7, 0x22, 0xca, 0xfe, 0x14, 0x9b, 
    0xd2, 0xc5, 0x18, 0xe2, 0x81, 0x1e, 0x0e, 0xbf, 0x01, 0x2a, 0x08, 0x1d, 
    0xa1, 0xa0, 0x5c, 0x1a, 0x3e, 0x27, 0x2e, 0x50, 0x02, 0xba, 0xd9, 0xcd, 
    0x57, 0x1f, 0x60, 0xb7, 0x81, 0x3a, 0x49, 0x46, 0x2a, 0x37, 0xc8, 0x91, 
    0x0b, 0x57, 0x4f, 0x1c, 0x42, 0xad, 0x1b, 0xc5, 0xa2, 0x18, 0x0c, 0x81, 
    0x03, 0xfe, 0x27, 0x44, 0x0e, 0x3f, 0xf9, 0xf6, 0x1b, 0xd2, 0x77, 0xa4, 
    0xfa, 0x2c, 0xf0, 0xaf, 0x0d, 0x08, 0x9b, 0xc3, 0xf1, 0xc9, 0x37, 0x47, 
    0xac, 0xd0, 0x8f, 0xd5, 0x66, 0xec, 0xf8, 0x3f, 0x06, 0x37, 0x2c, 0x12, 
    0x39, 0x81, 0xb0, 0xd6, 0xc9, 0x53, 0x20, 0x16, 0xed, 0x3d, 0x82, 0xc5, 
    0x1e, 0x8f, 0x81, 0x86, 0x92, 0x11, 0x43, 0xf2, 0x07, 0x63, 0xbe, 0x55, 
    0x0e, 0xc2, 0x37, 0x3f, 0xd3, 0xa9, 0xf0, 0x59, 0xff, 0x74, 0x13, 0x5e, 
    0x81, 0x1f, 0x60, 0x5c, 0x20, 0x6a, 0xdf, 0x59, 0x82, 0x53, 0xed, 0xd7, 
    0xa0, 0x08, 0x0a, 0x42, 0x63, 0xda, 0xf5, 0xf5, 0x3c, 0x11, 0x90, 0xd1, 
    0xd0, 0x81, 0x02, 0x5e, 0x40, 0x6d, 0xb7, 0xbd, 0x1c, 0xfe, 0xe2, 0xeb, 
    0x0a, 0xf4, 0xb6, 0xf1, 0x3e, 0xbe, 0x0a, 0x16, 0x37, 0x7f, 0xd5, 0x03, 
    0x31, 0xfc, 0x9e, 0xde, 0x96, 0xf0, 0xea, 0xbf, 0x05, 0x23, 0x34, 0xeb, 
    0xfa, 0xda, 0x11, 0xc9, 0x3e, 0x81, 0xef, 0x88, 0xd3, 0xe9, 0xb4, 0xf1, 
    0xaf, 0xc8, 0x9d, 0xa2, 0xdf, 0x87, 0xa6, 0xb3, 0xf5, 0xef, 0xdf, 0xfb, 
    0xfa, 0x7b, 0x65, 0xd3, 0x1c, 0x58, 0x69, 0xfd, 0x81, 0x78, 0xb0, 0x56, 
    0xa0, 0x30, 0xf6, 0xfe, 0x0c, 0x18, 0xb6, 0x2d, 0x0e, 0xde, 0xa5, 0x62, 
    0xb2, 0x81, 0x13, 0x2d, 0x3d, 0x03, 0x13, 0x8c, 0x0d, 0x81, 0x4e, 0xe8, 
    0x09, 0xf3, 0x32, 0x33, 0x38, 0xc6, 0xb5, 0x12, 0xee, 0x0c, 0x5c, 0xf4, 
    0x97, 0xe1, 0xb6, 0x3e, 0x17, 0x81, 0x33, 0x9e, 0xe7, 0x19, 0xbd, 0x74, 
    0xba, 0xa4, 0x46, 0xa3, 0x4a, 0x52, 0x0e, 0xa4, 0xcd, 0x76, 0xf0, 0x91, 
    0x29, 0x3e, 0x6c, 0xdc, 0x2f, 0x81, 0x02, 0x89, 0xd6, 0xd0, 0xff, 0xfd, 
    0x9b, 0x59, 0x8e, 0x21, 0x0e, 0xa1, 0x96, 0x94, 0xc2, 0x2b, 0x02, 0x59, 
    0xab, 0x25, 0x3d, 0x1c, 0x33, 0x18, 0x22, 0x48, 0x1b, 0xdd, 0x9b, 0xd5, 
    0x3d, 0xe5, 0x29, 0x6e, 0xf0, 0x81, 0x26, 0x49, 0xc3, 0xd7, 0xc9, 0xc7, 
    0x69, 0x3b, 0x38, 0xcc, 0x96, 0xf2, 0xff, 0xff, 0x04, 0x00, 0x00, 0x00, 
    0xc0, 0x00, 0x00, 0x00, 0x44, 0x2d, 0x00, 0x00, 0xf2, 0x00, 0x00, 0x00, 
    0x7b, 0x0f, 0x00, 0x00, 0x7c, 0xfc, 0xff, 0xff, 0xeb, 0x20, 0x00, 0x00, 
    0x74, 0x1d, 0x00, 0x00, 0xb6, 0x00, 0x00, 0x00, 0x70, 0x15, 0x00, 0x00, 
    0xfc, 0x07, 0x00, 0x00, 0xff, 0xc3, 0xff, 0xff, 0x9a, 0xab, 0xff, 0xff, 
    0x56, 0x24, 0x00, 0x00, 0x7b, 0xde, 0xff, 0xff, 0x8e, 0x15, 0x00, 0x00, 
    0x1b, 0x41, 0x00, 0x00, 0x9c, 0xe3, 0xff, 0xff, 0x18, 0x0d, 0x00, 0x00, 
    0xf1, 0x4d, 0x00, 0x00, 0x06, 0x14, 0x00, 0x00, 0x8d, 0x03, 0x00, 0x00, 
    0x55, 0x3f, 0x00, 0x00, 0x85, 0x0c, 0x00, 0x00, 0x6c, 0x63, 0x00, 0x00, 
    0x71, 0x60, 0x00, 0x00, 0x91, 0x12, 0x00, 0x00, 0xa7, 0xf7, 0xff, 0xff, 
    0xb2, 0x2f, 0x00, 0x00, 0x77, 0xfa, 0xff, 0xff, 0x2b, 0xeb, 0xff, 0xff, 
    0x22, 0xc7, 0xff, 0xff, 0xe9, 0xf8, 0xff, 0xff, 0x51, 0xa1, 0xff, 0xff, 
    0x2f, 0x3b, 0x00, 0x00, 0xdc, 0xf2, 0xff, 0xff, 0xec, 0x2c, 0x00, 0x00, 
    0xce, 0xcd, 0xff, 0xff, 0x1c, 0x0a, 0x00, 0x00, 0xbe, 0x28, 0x00, 0x00, 
    0x08, 0x16, 0x00, 0x00, 0x7f, 0xd9, 0xff, 0xff, 0x57, 0x13, 0x00, 0x00, 
    0xdb, 0x05, 0x00, 0x00, 0x10, 0x68, 0x00, 0x00, 0xc7, 0x01, 0x00, 0x00, 
    0xb4, 0x1b, 0x00, 0x00, 0x02, 0x03, 0x00, 0x00, 0xc3, 0x42, 0x00, 0x00, 
    0x43, 0xf8, 0xff, 0xff, 0x62, 0xf3, 0xff, 0xff, 0x04, 0x00, 0x00, 0x00, 
    0x90, 0x0c, 0x00, 0x00, 0x40, 0x17, 0xae, 0xe9, 0x79, 0xc3, 0x2d, 0x32, 
    0x22, 0x83, 0x13, 0x20, 0xe2, 0xf4, 0xc3, 0xf6, 0x21, 0x60, 0x25, 0x26, 
    0xd2, 0x23, 0x69, 0x72, 0xf1, 0xaa, 0x62, 0xaa, 0xdc, 0xe4, 0x66, 0x9a, 
    0xcd, 0x51, 0xa2, 0x3e, 0xf9, 0x3e, 0xdb, 0xd3, 0xf8, 0x57, 0xc7, 0x42, 
    0x94, 0x91, 0x0a, 0x7f, 0x37, 0x2c, 0xd0, 0x7e, 0x0e, 0xf5, 0x19, 0x74, 
    0x7f, 0xea, 0xd0, 0xdb, 0xa0, 0x23, 0xd3, 0x31, 0x04, 0x2f, 0x42, 0xb6, 
    0x46, 0xb8, 0x60, 0xd5, 0xe2, 0xac, 0xe7, 0xbd, 0x16, 0xc8, 0x01, 0xf8, 
    0x1d, 0x5a, 0x91, 0xf0, 0x08, 0xb2, 0xba, 0x2b, 0x06, 0x44, 0xdf, 0x27, 
    0xca, 0xfd, 0x14, 0x5f, 0x9b, 0xe3, 0x17, 0xc4, 0x34, 0xc1, 0x1e, 0x62, 
    0xde, 0x76, 0xc0, 0x9f, 0xb7, 0x25, 0x22, 0x33, 0x8d, 0x53, 0x19, 0x81, 
    0x36, 0xfa, 0x90, 0x27, 0x90, 0x8f, 0xba, 0xa8, 0x6c, 0x58, 0xaf, 0x5b, 
    0x4d, 0x48, 0xeb, 0xa7, 0xd0, 0x41, 0x37, 0x6d, 0xb6, 0x5b, 0x30, 0x38, 
    0x36, 0xa8, 0xe0, 0xe7, 0x52, 0xe1, 0x0a, 0x05, 0xea, 0xbc, 0xaf, 0xd6, 
    0xd0, 0x00, 0xad, 0x54, 0xbe, 0x24, 0x45, 0x8d, 0x21, 0x6d, 0xb3, 0x02, 
    0x99, 0x25, 0x0d, 0xcb, 0x7f, 0x47, 0xa2, 0xda, 0xb3, 0xbb, 0x6b, 0x54, 
    0xf2, 0xed, 0x71, 0x54, 0x28, 0xab, 0x05, 0x15, 0xd4, 0x3d, 0xe4, 0x5c, 
    0x6a, 0xd7, 0x28, 0x30, 0x35, 0x31, 0x7c, 0xe5, 0xc7, 0x34, 0x42, 0x60, 
    0x73, 0xc9, 0x20, 0xe1, 0x10, 0xb6, 0xe4, 0xeb, 0xa3, 0xcd, 0xac, 0xec, 
    0xf7, 0xc6, 0x50, 0xfa, 0xae, 0xd2, 0xab, 0xd1, 0x50, 0x24, 0xe9, 0x3f, 
    0xff, 0x45, 0x2a, 0xaa, 0xdc, 0x7f, 0x09, 0xa6, 0x17, 0xab, 0x05, 0x31, 
    0xc8, 0x66, 0x7b, 0x36, 0x34, 0xf9, 0x6f, 0xda, 0xa9, 0xdf, 0x57, 0x38, 
    0x6e, 0xbe, 0xaf, 0x17, 0x50, 0xbb, 0x9a, 0xb6, 0x31, 0xfc, 0xac, 0x4d, 
    0x53, 0x09, 0xe4, 0xc2, 0xff, 0xcc, 0x43, 0xc0, 0x39, 0xf0, 0x77, 0xf4, 
    0x3f, 0x0f, 0xc9, 0x54, 0x11, 0x64, 0xe9, 0xad, 0xe5, 0xec, 0x1d, 0x7f, 
    0x37, 0x9f, 0x0b, 0xc9, 0x29, 0xcd, 0x1f, 0xf6, 0xaf, 0x0e, 0x37, 0x1e, 
    0xe1, 0x1f, 0x5a, 0xe3, 0xdc, 0x10, 0xe6, 0x39, 0x02, 0x48, 0xb2, 0xd2, 
    0xc8, 0x6e, 0xdb, 0x49, 0xef, 0x4f, 0x3e, 0xca, 0x01, 0xdb, 0x22, 0xb3, 
    0xfd, 0xdc, 0xdf, 0x45, 0x2a, 0x05, 0x9d, 0xde, 0x03, 0x18, 0x0d, 0x7f, 
    0xa1, 0x2c, 0x5c, 0xa7, 0xa3, 0xfc, 0xa9, 0xb5, 0x22, 0x61, 0xce, 0x41, 
    0x70, 0x20, 0xe1, 0xc0, 0x01, 0x11, 0xd4, 0x03, 0x18, 0x4d, 0x40, 0x1d, 
    0x00, 0xc5, 0xce, 0x3c, 0x1c, 0x18, 0x54, 0xe3, 0x6c, 0xce, 0x0e, 0xe4, 
    0x11, 0x05, 0x7f, 0xab, 0xf4, 0xc9, 0xde, 0xa9, 0xea, 0x2f, 0xbf, 0x10, 
    0x50, 0xd6, 0x69, 0x48, 0x61, 0xee, 0xde, 0xeb, 0x3c, 0xd3, 0x0e, 0xbd, 
    0x40, 0x67, 0x16, 0x0f, 0xe0, 0xf8, 0xda, 0x3d, 0x0d, 0x3b, 0x8b, 0xc9, 
    0xce, 0x7f, 0x10, 0x1b, 0xc1, 0xa5, 0x06, 0x29, 0xeb, 0xb4, 0x76, 0x38, 
    0xfe, 0xdb, 0x73, 0xdf, 0x4e, 0xf9, 0xc9, 0x6f, 0xe8, 0x63, 0x46, 0xcf, 
    0xbb, 0xb4, 0xeb, 0xb7, 0xea, 0x11, 0xb8, 0xec, 0xdf, 0x44, 0x33, 0x11, 
    0x17, 0xba, 0x1e, 0xfa, 0x14, 0x18, 0xc8, 0xd7, 0xd6, 0xce, 0x1b, 0x7f, 
    0x5e, 0xfc, 0x38, 0xe2, 0xec, 0x00, 0xf3, 0xc3, 0xc0, 0xf9, 0x05, 0x22, 
    0xd9, 0xbe, 0xb0, 0x14, 0xd3, 0x2e, 0xc2, 0xd7, 0xcd, 0x62, 0x3e, 0x61, 
    0x14, 0x60, 0x08, 0x49, 0xd1, 0x4c, 0xd9, 0x36, 0x09, 0xb6, 0xd5, 0xc0, 
    0x75, 0xc5, 0xfd, 0xd8, 0xb0, 0xbc, 0xc6, 0xb3, 0x57, 0x39, 0x28, 0x0c, 
    0xfc, 0x4b, 0xef, 0x31, 0xb9, 0xf5, 0xbd, 0xc9, 0x5d, 0xd1, 0x07, 0xf1, 
    0x49, 0x49, 0xff, 0x2a, 0x59, 0xfe, 0x27, 0x67, 0x24, 0xd0, 0xdc, 0x7f, 
    0xf6, 0xb9, 0x18, 0x2f, 0xc5, 0xef, 0x3f, 0xe8, 0x0e, 0xec, 0x39, 0xb0, 
    0x2b, 0x3b, 0xfb, 0x63, 0xe6, 0xb6, 0xc5, 0x0a, 0xf1, 0xf1, 0xf4, 0x4f, 
    0x2f, 0xe1, 0x48, 0x5a, 0xda, 0xba, 0x4b, 0xd2, 0xe6, 0xf5, 0x4c, 0x5d, 
    0xc5, 0xd6, 0x22, 0x15, 0xcc, 0x0d, 0xaa, 0x69, 0x7f, 0x18, 0xd7, 0xb9, 
    0x1d, 0xa3, 0xf3, 0xa4, 0xb0, 0x2b, 0xee, 0xbb, 0x51, 0x1d, 0xf1, 0x4c, 
    0xcb, 0x45, 0xfc, 0xc0, 0x31, 0xbb, 0x85, 0xbc, 0x3c, 0xdc, 0x0c, 0x32, 
    0x33, 0x69, 0xc5, 0xd2, 0xc5, 0xc7, 0x38, 0x1d, 0x19, 0xee, 0x03, 0xc7, 
    0xe8, 0xb8, 0xaa, 0x68, 0x7f, 0x68, 0x56, 0x66, 0xf5, 0xc5, 0xfa, 0x4d, 
    0x5a, 0x27, 0xff, 0x9f, 0xe5, 0x25, 0xdb, 0xe6, 0xd9, 0x88, 0x7f, 0x1c, 
    0xe7, 0x59, 0x01, 0x1a, 0x1d, 0x96, 0xc1, 0x7f, 0xdc, 0xbf, 0x04, 0xd9, 
    0x51, 0xff, 0x6b, 0x3d, 0x44, 0xc5, 0x5d, 0x12, 0xc6, 0xba, 0x4e, 0xa3, 
    0x27, 0xb8, 0x77, 0x6e, 0xfd, 0x0b, 0x85, 0x39, 0xbe, 0xcd, 0x23, 0x24, 
    0x07, 0x9b, 0x36, 0x95, 0x07, 0x0c, 0xcb, 0xfb, 0x4b, 0x43, 0xdf, 0x59, 
    0x28, 0xd9, 0xf3, 0x34, 0x37, 0x3c, 0x07, 0xb6, 0x4e, 0x0f, 0x1d, 0x45, 
    0x2d, 0x4b, 0x2c, 0x7f, 0x35, 0x1d, 0x04, 0x5d, 0xc4, 0xb4, 0xe9, 0xf0, 
    0xf8, 0x5f, 0x3d, 0x16, 0x00, 0x2b, 0xc1, 0xb8, 0x08, 0x0e, 0xd0, 0xbd, 
    0x39, 0xc9, 0x21, 0xd7, 0x45, 0x1b, 0xfc, 0x09, 0x9d, 0xe1, 0xfb, 0x68, 
    0x45, 0xd0, 0xef, 0x6b, 0x7f, 0x76, 0x51, 0xe8, 0x4a, 0x5a, 0xfd, 0x48, 
    0xb5, 0x29, 0xdc, 0x76, 0xb2, 0x1b, 0xf1, 0xd7, 0x43, 0xe0, 0x5e, 0xda, 
    0x5d, 0xd8, 0xec, 0xe4, 0x3e, 0xa8, 0xde, 0xdf, 0xab, 0xb4, 0x4d, 0x98, 
    0xf1, 0x77, 0xd3, 0x01, 0x07, 0xd6, 0x5c, 0x71, 0xbb, 0x5b, 0x03, 0x81, 
    0x98, 0xe6, 0x20, 0xd7, 0x74, 0x25, 0x6c, 0xf5, 0x4e, 0x1d, 0x34, 0xa3, 
    0x24, 0x57, 0xff, 0xf7, 0x29, 0xd9, 0x39, 0x9d, 0x2d, 0xba, 0x3d, 0x38, 
    0x41, 0xb8, 0xf3, 0xdc, 0x13, 0xa8, 0x9f, 0x1a, 0xe3, 0x1b, 0x1f, 0x42, 
    0xe1, 0x0a, 0xfc, 0xbd, 0x9d, 0x5c, 0x1e, 0x77, 0xfb, 0x6f, 0x94, 0xf1, 
    0xf5, 0x1a, 0x0f, 0x0f, 0x78, 0x6c, 0x31, 0x3a, 0x66, 0x4f, 0x3b, 0xc8, 
    0xd5, 0xc3, 0x81, 0x08, 0x17, 0x3d, 0x0a, 0x13, 0xa5, 0xd3, 0xa4, 0xf0, 
    0x33, 0x8e, 0xb4, 0xf9, 0xc0, 0x90, 0x2f, 0x4e, 0xd4, 0x9f, 0x1a, 0x5f, 
    0xc9, 0x53, 0x17, 0x10, 0x7f, 0x4f, 0x94, 0x7c, 0x23, 0x6a, 0xb3, 0x86, 
    0x36, 0x95, 0x10, 0xed, 0x71, 0xb0, 0xd3, 0x23, 0x4a, 0x28, 0x1b, 0xb7, 
    0x64, 0x0a, 0x0c, 0x3a, 0xab, 0xfa, 0x4a, 0x48, 0xc0, 0xe5, 0x02, 0x37, 
    0x2a, 0xd4, 0xde, 0x08, 0xf0, 0x4f, 0x3a, 0x93, 0x38, 0x3b, 0x1b, 0x0c, 
    0x15, 0x31, 0xa6, 0xc2, 0xcd, 0x36, 0x04, 0xae, 0xba, 0x61, 0x53, 0xc2, 
    0xfe, 0x2e, 0xfb, 0xaf, 0x12, 0xf4, 0xc0, 0xe6, 0x47, 0x6c, 0x63, 0xd9, 
    0x27, 0xdf, 0xcb, 0xc3, 0x0b, 0x34, 0xa8, 0x5a, 0xa5, 0x81, 0x07, 0x14, 
    0x63, 0xc8, 0x38, 0x55, 0xc0, 0x03, 0x0b, 0xcb, 0xde, 0x59, 0x1d, 0x62, 
    0x0d, 0x37, 0x38, 0xf8, 0x3a, 0xd6, 0x6f, 0xa9, 0x95, 0xa8, 0x68, 0x70, 
    0xda, 0x00, 0x3d, 0x3f, 0xa4, 0xdd, 0x3b, 0x61, 0xf3, 0xe4, 0x74, 0x5b, 
    0x81, 0x9e, 0x93, 0x13, 0x1c, 0xd3, 0x6c, 0x40, 0x24, 0x42, 0xd9, 0xc3, 
    0x02, 0xaf, 0xf3, 0xdd, 0x39, 0xc5, 0x0c, 0x6a, 0xfb, 0x01, 0x39, 0x45, 
    0x48, 0x95, 0x4a, 0xe3, 0x22, 0xf6, 0xc7, 0xd0, 0xca, 0x34, 0xa9, 0xbd, 
    0xfb, 0x50, 0x0e, 0x2f, 0xe9, 0x72, 0x4f, 0x22, 0xdd, 0x15, 0x49, 0xe4, 
    0xdc, 0x51, 0xc7, 0xf1, 0xee, 0xbe, 0xde, 0xe3, 0x53, 0xf7, 0x07, 0xd9, 
    0x24, 0x47, 0xde, 0x98, 0xcb, 0x43, 0x59, 0x7f, 0x4c, 0x1e, 0xcf, 0x17, 
    0xbf, 0xdb, 0xba, 0xee, 0x05, 0xfe, 0x7f, 0x52, 0x13, 0x66, 0xda, 0xd0, 
    0x1f, 0xd3, 0x2f, 0xb2, 0x30, 0xbc, 0x41, 0x5d, 0xd6, 0xee, 0x1d, 0x39, 
    0x45, 0xdd, 0xd2, 0x2f, 0x01, 0xe7, 0x4d, 0x0d, 0xc8, 0x06, 0xa8, 0xc4, 
    0xdc, 0x3e, 0xab, 0x22, 0x28, 0xda, 0xbb, 0xc5, 0x2b, 0x1a, 0x00, 0xe6, 
    0x47, 0x43, 0xae, 0xa9, 0xc7, 0x1b, 0xff, 0x15, 0x15, 0x41, 0xdf, 0xbf, 
    0x63, 0xe6, 0xbb, 0x34, 0xcb, 0xf8, 0x14, 0xc7, 0xa1, 0x1b, 0xdb, 0xe3, 
    0xa9, 0xd2, 0xf3, 0x37, 0x26, 0x0e, 0x09, 0x10, 0xba, 0x70, 0x4e, 0xd3, 
    0x05, 0xec, 0xf0, 0xee, 0x28, 0xd1, 0x1e, 0xd7, 0x85, 0x63, 0xe8, 0x6e, 
    0x1a, 0x5b, 0xc7, 0x7f, 0xb7, 0x34, 0xe2, 0xf7, 0xc5, 0x0e, 0xb7, 0x7f, 
    0xdf, 0xcf, 0x54, 0x0a, 0x40, 0xeb, 0x48, 0x23, 0xe4, 0x73, 0xbc, 0x0e, 
    0xe2, 0xc2, 0xb1, 0x71, 0x69, 0x0f, 0x2d, 0x06, 0xbc, 0xe7, 0x4e, 0x57, 
    0x19, 0xc3, 0xe0, 0xb7, 0xfe, 0xa1, 0x20, 0x60, 0xfb, 0xe0, 0xb9, 0x5d, 
    0xd4, 0xce, 0xb7, 0xf9, 0x31, 0x6c, 0x87, 0xe2, 0x57, 0x2d, 0x3b, 0x20, 
    0x87, 0x19, 0xb5, 0x1a, 0x0a, 0x24, 0x51, 0xf9, 0x09, 0x03, 0xe8, 0x20, 
    0xc5, 0x81, 0xac, 0x1d, 0x06, 0x4a, 0x97, 0xd8, 0x21, 0xe1, 0x36, 0x33, 
    0xcb, 0xfe, 0x16, 0xb0, 0xdd, 0xf6, 0x7c, 0x9d, 0x3b, 0x50, 0x51, 0x24, 
    0xc4, 0xe8, 0x1d, 0x39, 0x23, 0x32, 0xe9, 0xca, 0x27, 0xcf, 0x0c, 0x5d, 
    0x04, 0x9b, 0x23, 0x62, 0xf0, 0xe6, 0x0c, 0xe1, 0x30, 0xdb, 0xfd, 0xa5, 
    0xf0, 0x2d, 0xc6, 0x2c, 0x65, 0x64, 0x21, 0xd2, 0xb6, 0x81, 0x1f, 0x2d, 
    0xa0, 0xc2, 0xac, 0x43, 0x48, 0x3c, 0xff, 0x4d, 0xb9, 0x1f, 0x5f, 0xb0, 
    0x36, 0xef, 0x08, 0x61, 0xbe, 0x02, 0x06, 0xb1, 0xea, 0x44, 0x0b, 0xf7, 
    0x76, 0x05, 0x61, 0x04, 0x6e, 0xf7, 0xbe, 0x5d, 0x2a, 0xce, 0xb7, 0xf7, 
    0x12, 0xbf, 0xb7, 0x29, 0x0c, 0x4a, 0xbe, 0x7f, 0x97, 0xae, 0x36, 0xa3, 
    0xd9, 0xa8, 0x8c, 0x0a, 0x10, 0xd7, 0x66, 0xc2, 0x1e, 0xdf, 0x1a, 0x24, 
    0x0a, 0xc4, 0x73, 0x03, 0x01, 0x1d, 0x38, 0x52, 0xb8, 0x2c, 0xd5, 0x9a, 
    0xf9, 0xcb, 0xc7, 0x4d, 0x0a, 0xf9, 0xb9, 0x62, 0xd9, 0xef, 0x04, 0x27, 
    0xe9, 0x28, 0x2c, 0xfa, 0xf7, 0xf2, 0xe3, 0xdf, 0x31, 0x2e, 0x01, 0xc5, 
    0xd4, 0xe3, 0x36, 0x06, 0xd0, 0xbf, 0x51, 0xc3, 0xcc, 0xa1, 0xb0, 0x47, 
    0x7f, 0xc3, 0x70, 0x41, 0x27, 0x24, 0x81, 0x1e, 0x8e, 0xf5, 0xd2, 0xc0, 
    0x18, 0x41, 0x3d, 0xd1, 0x35, 0xcb, 0x97, 0xdf, 0x50, 0x3e, 0x2b, 0xc6, 
    0xa4, 0x05, 0x0d, 0x08, 0xdb, 0x30, 0xf5, 0x62, 0x19, 0xbc, 0xc8, 0xc2, 
    0x66, 0xf8, 0x43, 0x39, 0x00, 0xc6, 0x23, 0x68, 0x97, 0x34, 0xf8, 0xe3, 
    0x13, 0x0d, 0x0f, 0xb9, 0xa6, 0x96, 0x44, 0x36, 0x8a, 0x8c, 0x06, 0xea, 
    0x58, 0x3f, 0x78, 0xfa, 0xee, 0xc2, 0x42, 0x6a, 0x7a, 0x4f, 0x9b, 0xbb, 
    0x19, 0x82, 0xdc, 0x45, 0x67, 0xd3, 0x10, 0x24, 0x28, 0xd5, 0xb8, 0x4b, 
    0x81, 0xc4, 0xb7, 0xf9, 0xfb, 0xdf, 0x0e, 0x30, 0x1b, 0xa8, 0x0e, 0x42, 
    0xb5, 0x54, 0xdc, 0x0d, 0xfc, 0x9b, 0x72, 0xe7, 0xba, 0xb0, 0x59, 0xf6, 
    0x22, 0xf1, 0x55, 0xc8, 0xf3, 0x61, 0x17, 0x7f, 0x30, 0x53, 0xc9, 0x36, 
    0xfc, 0xa0, 0xed, 0xab, 0xfc, 0x63, 0x66, 0x51, 0xe2, 0xa1, 0xa5, 0x03, 
    0x01, 0xb5, 0x42, 0x7b, 0x97, 0xd5, 0x0a, 0xe9, 0x43, 0x1a, 0xa2, 0xd8, 
    0x4f, 0xb6, 0x05, 0xf1, 0x9a, 0x39, 0x1a, 0x81, 0x13, 0xec, 0x93, 0x1e, 
    0x93, 0x3f, 0x0c, 0x3b, 0x84, 0x61, 0xc1, 0x1c, 0xa6, 0x9a, 0x2e, 0xed, 
    0x4d, 0xba, 0x46, 0x48, 0x52, 0x18, 0x0e, 0x6f, 0x94, 0xeb, 0x48, 0xa1, 
    0xef, 0xc2, 0x37, 0x57, 0x20, 0xf9, 0xa8, 0x3d, 0x5e, 0xe9, 0x1e, 0x46, 
    0xf8, 0x4b, 0x98, 0x1e, 0x3d, 0x14, 0x54, 0xc2, 0x45, 0x13, 0xc9, 0xc1, 
    0x64, 0x5c, 0xcb, 0x96, 0x5d, 0x0e, 0x6b, 0xec, 0x25, 0x98, 0xd0, 0x2c, 
    0x6d, 0xc8, 0x2f, 0x0a, 0x3e, 0xe6, 0xb5, 0x70, 0xe6, 0xef, 0x69, 0xb3, 
    0x10, 0xbe, 0x50, 0x9d, 0x06, 0xb0, 0x7f, 0x87, 0x45, 0x8b, 0x90, 0xf2, 
    0x2a, 0x9a, 0xec, 0x58, 0x39, 0x15, 0x37, 0xd4, 0x43, 0x0b, 0xe4, 0x3f, 
    0x42, 0xef, 0x1d, 0x49, 0xcd, 0x28, 0x19, 0xf7, 0x15, 0xe4, 0x27, 0x99, 
    0x6b, 0x39, 0xdf, 0x19, 0xc1, 0x81, 0x08, 0xe8, 0xf3, 0x2e, 0x25, 0xe9, 
    0x71, 0xa8, 0xa4, 0x14, 0x4a, 0x4e, 0xd9, 0xf9, 0xc0, 0x57, 0x67, 0x51, 
    0xd4, 0xa7, 0xd5, 0x33, 0x29, 0x22, 0x46, 0xe9, 0xa6, 0xda, 0xf7, 0xc3, 
    0x26, 0xb5, 0xf7, 0x68, 0x19, 0x60, 0x6d, 0xb6, 0x30, 0xe2, 0x51, 0x9c, 
    0xf2, 0x5b, 0x2d, 0x33, 0xf9, 0xde, 0x99, 0xb9, 0x81, 0xe9, 0xd2, 0x0e, 
    0x2d, 0xfe, 0x2d, 0x4a, 0x67, 0xd6, 0xef, 0x11, 0xdc, 0x3f, 0x41, 0x07, 
    0x4f, 0x5a, 0x2e, 0x4f, 0xf1, 0x7f, 0xdc, 0x8f, 0x56, 0xdb, 0xc6, 0x9a, 
    0x48, 0x1d, 0xd7, 0x5a, 0xca, 0x66, 0xc2, 0x5a, 0x67, 0x07, 0xdb, 0xe9, 
    0x89, 0x65, 0x85, 0x0b, 0xbb, 0xe9, 0x3a, 0x1a, 0x3b, 0x2a, 0x9b, 0xdb, 
    0x12, 0x1b, 0x39, 0x2b, 0x65, 0xaa, 0x4b, 0x2d, 0x5e, 0x8d, 0x20, 0x54, 
    0x01, 0xd1, 0x0f, 0xd2, 0x4f, 0xb1, 0xb6, 0x67, 0x15, 0x47, 0x3a, 0x1f, 
    0x90, 0x1d, 0xd0, 0xf9, 0xb0, 0xad, 0xf0, 0xa1, 0xb1, 0xd1, 0x84, 0xba, 
    0x3e, 0x7f, 0x16, 0x54, 0xb3, 0x60, 0xe4, 0x5c, 0x16, 0x54, 0xb9, 0x36, 
    0x23, 0x69, 0x48, 0xd2, 0x53, 0x4d, 0xd9, 0xaf, 0xde, 0xb5, 0xb6, 0x41, 
    0x76, 0x43, 0x19, 0xdc, 0x73, 0x60, 0x9a, 0xc1, 0xb1, 0x2e, 0xd1, 0x79, 
    0x0e, 0x44, 0x9d, 0x31, 0xce, 0x4e, 0x9e, 0x08, 0x4b, 0x0d, 0x5a, 0x7a, 
    0x7f, 0x25, 0x71, 0xeb, 0x37, 0xc1, 0xde, 0x64, 0x27, 0xe4, 0xca, 0x36, 
    0x04, 0x2b, 0xf5, 0xa8, 0xf3, 0xfc, 0xcf, 0x81, 0x10, 0xf5, 0xef, 0x44, 
    0x3c, 0x11, 0x2a, 0xe8, 0x0a, 0x24, 0xb3, 0x48, 0xfc, 0xe5, 0x99, 0x67, 
    0x94, 0x10, 0xfd, 0xa7, 0xf4, 0xa6, 0xf6, 0x08, 0xd5, 0xbb, 0xb1, 0x2b, 
    0x7f, 0x48, 0xd0, 0x67, 0xb6, 0x34, 0x97, 0x03, 0xbf, 0xff, 0xe9, 0xce, 
    0x48, 0x61, 0x42, 0x3e, 0xda, 0x0e, 0x55, 0x7e, 0x87, 0xfc, 0x5d, 0xd5, 
    0x43, 0x4d, 0xd4, 0xdf, 0x59, 0x12, 0xec, 0x30, 0x0f, 0x2d, 0x14, 0xc0, 
    0x0d, 0xe1, 0xfa, 0x17, 0x3d, 0xc9, 0x4d, 0xc8, 0xd9, 0xfb, 0xff, 0x7f, 
    0xf5, 0xce, 0xe6, 0x71, 0x2b, 0x28, 0xfe, 0x06, 0xe0, 0xe7, 0xea, 0x14, 
    0x3f, 0x49, 0xc4, 0xe5, 0xae, 0xec, 0x16, 0x37, 0xdd, 0xcf, 0x03, 0x08, 
    0x28, 0xfa, 0xf1, 0xdd, 0x7c, 0xbd, 0x0d, 0xd7, 0x24, 0x34, 0x58, 0x81, 
    0x64, 0xdd, 0xd5, 0xba, 0xc2, 0xd9, 0x5d, 0x44, 0x31, 0xc6, 0xf1, 0xa0, 
    0xc7, 0x68, 0xd2, 0xf7, 0x2a, 0x66, 0x0d, 0x05, 0x25, 0xc3, 0x34, 0xed, 
    0xe2, 0x44, 0x19, 0x56, 0x97, 0x06, 0xd3, 0xc5, 0x40, 0x3a, 0x57, 0xf8, 
    0x2a, 0xe7, 0x08, 0xb1, 0xc6, 0xf1, 0x2f, 0x8e, 0xd4, 0x14, 0x3c, 0x7f, 
    0xef, 0x54, 0x9f, 0xd6, 0xb6, 0xf6, 0x68, 0x34, 0x22, 0x24, 0xf3, 0x42, 
    0xa1, 0x47, 0xe6, 0x9d, 0x27, 0x58, 0x30, 0x66, 0x0e, 0x0b, 0x2c, 0xb5, 
    0x21, 0x41, 0xbf, 0x42, 0x8b, 0x48, 0x93, 0x95, 0xd5, 0xc5, 0xd5, 0x1f, 
    0xd7, 0xb6, 0x61, 0xdc, 0x92, 0xf5, 0xdb, 0xe6, 0x28, 0xac, 0x7a, 0xa3, 
    0x7f, 0x09, 0x9a, 0x0f, 0x43, 0xd8, 0x1d, 0xc8, 0xa6, 0x1b, 0xae, 0xd6, 
    0x39, 0x0b, 0xa7, 0xb8, 0xaa, 0xc4, 0x40, 0xf9, 0x30, 0x66, 0x08, 0xd9, 
    0x19, 0x5e, 0x64, 0xef, 0xb6, 0xc4, 0x98, 0xf7, 0xb4, 0x19, 0xbe, 0x16, 
    0x3d, 0x49, 0x35, 0x5f, 0x1c, 0x2a, 0x74, 0xf4, 0xc2, 0xab, 0xf2, 0x4e, 
    0x39, 0x37, 0xd7, 0xb3, 0xe4, 0xd9, 0x78, 0x0d, 0x59, 0xf1, 0xd1, 0x10, 
    0xea, 0x53, 0xed, 0x6d, 0x5b, 0x2d, 0xcc, 0xe0, 0xab, 0x1c, 0xc5, 0xa9, 
    0x1b, 0x0e, 0x32, 0xf8, 0xf5, 0xbb, 0xe3, 0xc5, 0x54, 0xfd, 0x9c, 0xab, 
    0xd2, 0x2f, 0xd1, 0x7f, 0x0b, 0xa1, 0x15, 0xab, 0xd8, 0x63, 0xe7, 0x94, 
    0xf2, 0x4e, 0x55, 0xee, 0xfb, 0x3c, 0xa8, 0x25, 0x45, 0x17, 0x9e, 0xcc, 
    0xc1, 0x21, 0x9c, 0x71, 0x43, 0x02, 0x7f, 0xc2, 0xa4, 0xba, 0x46, 0xfb, 
    0xa8, 0x43, 0xc2, 0xde, 0xdf, 0xdc, 0x6d, 0x42, 0x42, 0xcc, 0x2f, 0x55, 
    0x92, 0x97, 0x74, 0xfb, 0x63, 0xf4, 0x6c, 0xf2, 0x4d, 0xd1, 0x31, 0xdf, 
    0x5b, 0xcd, 0xe4, 0x00, 0x4f, 0x5c, 0xe5, 0xbb, 0x05, 0x5e, 0xb4, 0x5a, 
    0x81, 0x15, 0x56, 0xfb, 0xf6, 0x93, 0x1f, 0x9e, 0xf3, 0xd0, 0x27, 0x38, 
    0x41, 0x18, 0xbc, 0x4d, 0x11, 0xd6, 0xf3, 0x9f, 0x9c, 0x59, 0xfc, 0x05, 
    0xf0, 0xae, 0xb9, 0xfc, 0x5e, 0x73, 0x1d, 0x0a, 0x03, 0x92, 0x7f, 0xf0, 
    0xb9, 0xb5, 0xc8, 0x26, 0x5b, 0xa6, 0xc1, 0x79, 0x1f, 0x07, 0x6f, 0xc4, 
    0x5a, 0xb4, 0x3e, 0xc5, 0xa2, 0xcf, 0xaf, 0x44, 0xa3, 0xc0, 0xc6, 0xdd, 
    0xa5, 0x75, 0x25, 0xcb, 0x56, 0x5c, 0x0d, 0x1a, 0x2c, 0xe1, 0x3f, 0x7e, 
    0xcc, 0x77, 0x4d, 0x91, 0xa0, 0xce, 0x99, 0xc7, 0x78, 0x7f, 0x77, 0xaa, 
    0xe1, 0x1a, 0xf8, 0x14, 0x4d, 0xfc, 0xb1, 0x14, 0xd7, 0x2a, 0x37, 0x35, 
    0x37, 0x2d, 0xc4, 0x03, 0x98, 0x95, 0x52, 0xc7, 0x54, 0xf6, 0xc9, 0xd3, 
    0xed, 0x3d, 0xf0, 0xbb, 0xf3, 0x67, 0xf3, 0x09, 0x9c, 0x33, 0xd9, 0xc1, 
    0x16, 0x5a, 0x9c, 0x30, 0x1a, 0x4e, 0x9b, 0xc9, 0x05, 0x03, 0x0d, 0x20, 
    0x60, 0x91, 0x6d, 0x6d, 0x2e, 0x00, 0x79, 0xf2, 0xf4, 0xf1, 0x46, 0xf0, 
    0xb2, 0xdc, 0xfb, 0x74, 0x1d, 0x25, 0x58, 0x09, 0x7f, 0xda, 0xad, 0x11, 
    0xad, 0xcd, 0xea, 0x9c, 0x37, 0x22, 0xd1, 0x95, 0xca, 0x41, 0x8e, 0xe7, 
    0xe8, 0xf3, 0x0a, 0x37, 0x06, 0x28, 0x91, 0x33, 0x45, 0x78, 0x5f, 0x38, 
    0x26, 0xbd, 0xc7, 0x0c, 0x3d, 0x9c, 0x5e, 0xf3, 0xb7, 0x16, 0xfb, 0x12, 
    0xae, 0x00, 0x16, 0x69, 0x41, 0xec, 0x09, 0x4b, 0x23, 0xb6, 0x7f, 0x12, 
    0xf8, 0xde, 0x3f, 0x0f, 0xcf, 0x5c, 0x98, 0x25, 0x61, 0xcd, 0x47, 0x96, 
    0x48, 0xe9, 0xa9, 0xfb, 0x49, 0x54, 0x21, 0x81, 0x73, 0x7b, 0x31, 0xde, 
    0x30, 0x26, 0x97, 0x3f, 0xfe, 0x36, 0xd4, 0x6c, 0x9a, 0xc5, 0x8f, 0xff, 
    0x71, 0x77, 0xb1, 0x43, 0x6d, 0x0c, 0x78, 0xff, 0x6a, 0x34, 0x04, 0xfe, 
    0x5f, 0x0f, 0xaa, 0x01, 0x1a, 0x98, 0xa6, 0xac, 0x16, 0xed, 0x1c, 0xdf, 
    0x0e, 0xc0, 0xa1, 0x8b, 0xf9, 0x61, 0x76, 0xad, 0xf8, 0xd2, 0x2b, 0xc6, 
    0xc9, 0x45, 0xa2, 0x79, 0xfd, 0xc4, 0xa7, 0x2b, 0xe7, 0x64, 0x17, 0xc3, 
    0xf6, 0x14, 0x3f, 0x64, 0x2f, 0x70, 0xf1, 0xff, 0xff, 0x18, 0xd9, 0xcb, 
    0xe0, 0x08, 0x25, 0xd8, 0xb1, 0xe2, 0x34, 0x78, 0x12, 0x70, 0xdc, 0x11, 
    0x7f, 0xcc, 0xf7, 0xdf, 0x16, 0xb6, 0xc0, 0x47, 0x02, 0x16, 0xd4, 0xf5, 
    0x3e, 0x10, 0xd1, 0xf3, 0xb4, 0x23, 0xf1, 0x11, 0xbe, 0x16, 0xad, 0x19, 
    0xda, 0xdc, 0x4a, 0xf1, 0xe8, 0x0f, 0x2f, 0x38, 0x47, 0x18, 0x39, 0x23, 
    0x14, 0xd9, 0xdf, 0x28, 0xbe, 0x08, 0x47, 0x1c, 0x19, 0x22, 0xa5, 0x81, 
    0x56, 0x89, 0x28, 0x18, 0x1b, 0x46, 0xf2, 0xa4, 0x68, 0xd9, 0xeb, 0xdc, 
    0xc1, 0xe3, 0xf3, 0x23, 0xd0, 0x50, 0xe8, 0xb6, 0xe5, 0x0f, 0xf6, 0x96, 
    0x44, 0x2e, 0x66, 0xff, 0x9b, 0x11, 0x5c, 0xbb, 0x29, 0xdd, 0xd0, 0x3e, 
    0x3d, 0x18, 0x20, 0x29, 0x36, 0x05, 0x18, 0x4d, 0xc9, 0x7f, 0xc3, 0x46, 
    0x3a, 0x34, 0xd8, 0x21, 0x62, 0x68, 0x76, 0x22, 0x78, 0xca, 0xa8, 0x81, 
    0xb3, 0x93, 0xc2, 0x9e, 0xc0, 0xb1, 0x24, 0x1d, 0xd0, 0x44, 0x63, 0x21, 
    0xa0, 0x05, 0xe5, 0xe0, 0x47, 0xcc, 0xd4, 0x71, 0x54, 0x11, 0xcf, 0x49, 
    0xc7, 0x53, 0xfb, 0x33, 0xe7, 0x15, 0x03, 0x83, 0x04, 0x67, 0xd7, 0xfc, 
    0x58, 0x60, 0x74, 0xb3, 0xef, 0x35, 0xeb, 0x04, 0x76, 0x38, 0x56, 0x7f, 
    0xc7, 0x44, 0xa0, 0xca, 0x14, 0x0c, 0x15, 0xdc, 0xdf, 0x38, 0x93, 0xba, 
    0x68, 0x79, 0x05, 0x7e, 0xbb, 0xa7, 0xe6, 0xc0, 0xff, 0xf6, 0x40, 0x19, 
    0xe1, 0xc0, 0x87, 0x45, 0x5e, 0x1e, 0x51, 0xec, 0xc7, 0x75, 0x97, 0x3d, 
    0x40, 0x26, 0x96, 0xf4, 0x7f, 0xd2, 0xe6, 0xfd, 0xdd, 0x59, 0xd4, 0x2c, 
    0x54, 0x03, 0x01, 0xd3, 0x28, 0x43, 0x2e, 0xd0, 0x09, 0xf9, 0x57, 0x26, 
    0x47, 0xee, 0x04, 0x41, 0x2a, 0xf2, 0xe4, 0xac, 0xca, 0x8e, 0x26, 0x0e, 
    0x4b, 0xeb, 0xb9, 0x29, 0x34, 0x2d, 0x6a, 0xa2, 0x40, 0xfa, 0x3c, 0xb0, 
    0x64, 0xcd, 0x16, 0x04, 0x41, 0x04, 0x1a, 0x22, 0x68, 0x20, 0xd9, 0x3b, 
    0xff, 0x7b, 0x3a, 0xac, 0x32, 0x32, 0x05, 0x2c, 0x1a, 0x3c, 0xe9, 0x1a, 
    0x88, 0x69, 0x05, 0x54, 0xb0, 0xc7, 0xc4, 0x2d, 0xe2, 0x3d, 0xa9, 0x9d, 
    0x8d, 0x9c, 0xbc, 0x21, 0xa8, 0xa4, 0xb9, 0x3b, 0x31, 0x81, 0x50, 0xc8, 
    0xe2, 0xf6, 0x51, 0xdb, 0x0b, 0x49, 0xc4, 0x5a, 0xfa, 0xf4, 0x81, 0x78, 
    0xce, 0x72, 0xfc, 0xf0, 0x6b, 0x92, 0xa8, 0xb2, 0x34, 0xff, 0xdd, 0xfa, 
    0x09, 0x2f, 0xf6, 0x25, 0x22, 0x1e, 0xb7, 0xe6, 0x2d, 0xb1, 0x09, 0x97, 
    0x61, 0xe5, 0x2f, 0xf5, 0xb3, 0x05, 0x27, 0xb6, 0x9d, 0xf0, 0x51, 0x25, 
    0xee, 0x1f, 0x32, 0x6b, 0xbd, 0xe2, 0xe3, 0xd4, 0xf8, 0x91, 0x29, 0x98, 
    0x6e, 0xf9, 0x30, 0x52, 0xc1, 0x44, 0xd2, 0x1d, 0xcc, 0x74, 0x1f, 0x54, 
    0x77, 0x24, 0xd9, 0x13, 0xcf, 0x2c, 0xd8, 0xc8, 0x98, 0x24, 0xdf, 0x1d, 
    0xda, 0x40, 0x09, 0x16, 0x4b, 0x47, 0x7f, 0x08, 0x3f, 0x23, 0xc8, 0xbf, 
    0xce, 0xb6, 0xd4, 0xa0, 0x75, 0x9d, 0xb5, 0x42, 0x02, 0x35, 0x2b, 0x4d, 
    0x09, 0xe2, 0x41, 0xd1, 0xde, 0x59, 0x2c, 0xe9, 0xa5, 0x12, 0x0a, 0x0c, 
    0xf2, 0xaf, 0x0d, 0x3c, 0xbc, 0x15, 0x41, 0xa7, 0xc6, 0xec, 0x85, 0xf2, 
    0xc6, 0x77, 0x5c, 0x0b, 0x2b, 0xb8, 0x6a, 0xaf, 0x19, 0x7f, 0x9d, 0xd9, 
    0x61, 0xc3, 0x3e, 0x04, 0x76, 0x9d, 0xc0, 0x1e, 0x07, 0x4e, 0x0d, 0x71, 
    0x32, 0x8b, 0x21, 0x9f, 0x8c, 0x38, 0xb0, 0xad, 0xe0, 0xcc, 0x01, 0xf2, 
    0x13, 0xff, 0xd5, 0x92, 0x14, 0xa7, 0xfd, 0x16, 0x5e, 0x22, 0x31, 0x5d, 
    0xf4, 0x36, 0x98, 0xd8, 0xa4, 0xa9, 0xda, 0xe9, 0x4d, 0x08, 0xfb, 0x4b, 
    0x2a, 0xb5, 0x64, 0x7f, 0x78, 0x36, 0x69, 0xba, 0xc5, 0x69, 0x75, 0x85, 
    0x4e, 0x76, 0xae, 0x21, 0xaf, 0xd7, 0xdd, 0xc1, 0x26, 0xc5, 0x39, 0xd8, 
    0x98, 0x67, 0xff, 0x0f, 0x2d, 0x07, 0x1b, 0xe8, 0xdc, 0x14, 0xf5, 0xc7, 
    0x53, 0xda, 0xef, 0xdb, 0x34, 0xad, 0xfd, 0xcb, 0xc4, 0x16, 0x35, 0x47, 
    0x16, 0x98, 0x7f, 0x6f, 0x64, 0xd8, 0x3b, 0x08, 0x5b, 0x36, 0x16, 0xf1, 
    0x65, 0x14, 0xd6, 0xd2, 0x52, 0x7f, 0x49, 0xb1, 0xca, 0x47, 0x16, 0xf3, 
    0xd1, 0xf2, 0x76, 0x0d, 0x17, 0x99, 0xe8, 0xbd, 0x2f, 0x0d, 0x30, 0x1c, 
    0x1d, 0x2e, 0xe3, 0xe3, 0x98, 0xb8, 0xb6, 0x12, 0xa1, 0xb5, 0xac, 0xf3, 
    0xfa, 0x00, 0x2a, 0xef, 0xf2, 0x53, 0x7a, 0x3a, 0x81, 0x18, 0x57, 0xca, 
    0x0b, 0x4c, 0xb9, 0x15, 0xff, 0xc2, 0x96, 0x4d, 0xd7, 0x59, 0x7e, 0x14, 
    0x37, 0xa3, 0x16, 0x3b, 0x81, 0x25, 0x17, 0x51, 0x9c, 0x02, 0x85, 0x16, 
    0x05, 0xd0, 0x4a, 0x13, 0xd6, 0x3e, 0x46, 0x4e, 0x37, 0x9c, 0xeb, 0xa8, 
    0x49, 0xa7, 0x6a, 0xb2, 0xf4, 0x9b, 0x13, 0x25, 0xda, 0xb9, 0x0d, 0x42, 
    0x31, 0x88, 0x07, 0x5d, 0x3c, 0xb7, 0x03, 0x1a, 0x3f, 0xda, 0x4b, 0x28, 
    0xb5, 0x17, 0x26, 0xe2, 0x1e, 0x23, 0x45, 0x2f, 0xa6, 0x19, 0x59, 0x81, 
    0x7e, 0xe6, 0xcc, 0x6c, 0x5e, 0x0c, 0xa6, 0x86, 0xfa, 0x07, 0xca, 0x58, 
    0x6b, 0xf9, 0x22, 0xaa, 0x00, 0x00, 0x06, 0x00, 0x08, 0x00, 0x04, 0x00, 
    0x06, 0x00, 0x00, 0x00, 0x04, 0x00, 0x00, 0x00, 0x0c, 0x01, 0x00, 0x00, 
    0x12, 0xf4, 0xff, 0xff, 0xca, 0x43, 0x00, 0x00, 0xb2, 0x22, 0x00, 0x00, 
    0x65, 0xf7, 0xff, 0xff, 0x58, 0x1a, 0x00, 0x00, 0xf1, 0x26, 0x00, 0x00, 
    0x8d, 0x1a, 0x00, 0x00, 0xdc, 0x03, 0x00, 0x00, 0xdb, 0x1b, 0x00, 0x00, 
    0x50, 0xf9, 0xff, 0xff, 0xdb, 0x23, 0x00, 0x00, 0x07, 0x33, 0x00, 0x00, 
    0xe8, 0x37, 0x00, 0x00, 0x35, 0xfa, 0xff, 0xff, 0x67, 0x28, 0x00, 0x00, 
    0xd7, 0x64, 0x00, 0x00, 0x41, 0x34, 0x00, 0x00, 0xa8, 0x10, 0x00, 0x00, 
    0xdb, 0x0f, 0x00, 0x00, 0xa7, 0x26, 0x00, 0x00, 0xc3, 0xf7, 0xff, 0xff, 
    0x11, 0x07, 0x00, 0x00, 0x0d, 0xf6, 0xff, 0xff, 0x1b, 0x0a, 0x00, 0x00, 
    0xac, 0x10, 0x00, 0x00, 0x90, 0x20, 0x00, 0x00, 0xf2, 0x0b, 0x00, 0x00, 
    0x51, 0x17, 0x00, 0x00, 0x2c, 0x26, 0x00, 0x00, 0xb7, 0x36, 0x00, 0x00, 
    0xa5, 0x1e, 0x00, 0x00, 0xa5, 0xff, 0xff, 0xff, 0x33, 0x21, 0x00, 0x00, 
    0x97, 0x35, 0x00, 0x00, 0x04, 0x03, 0x00, 0x00, 0xd6, 0x30, 0x00, 0x00, 
    0x03, 0x19, 0x00, 0x00, 0x6e, 0x3e, 0x00, 0x00, 0xf1, 0x07, 0x00, 0x00, 
    0x5b, 0x1e, 0x00, 0x00, 0x90, 0x08, 0x00, 0x00, 0x54, 0xe2, 0xff, 0xff, 
    0x44, 0x07, 0x00, 0x00, 0x73, 0x1a, 0x00, 0x00, 0xfe, 0xee, 0xff, 0xff, 
    0xea, 0x10, 0x00, 0x00, 0x58, 0xfa, 0xff, 0xff, 0xbf, 0xd5, 0xff, 0xff, 
    0x3d, 0x0c, 0x00, 0x00, 0x53, 0xf9, 0xff, 0xff, 0xad, 0x12, 0x00, 0x00, 
    0x60, 0x13, 0x00, 0x00, 0x42, 0x0e, 0x00, 0x00, 0xb4, 0x12, 0x00, 0x00, 
    0xa2, 0x04, 0x00, 0x00, 0x2f, 0xfe, 0xff, 0xff, 0x53, 0x2a, 0x00, 0x00, 
    0x3f, 0x22, 0x00, 0x00, 0xd0, 0x16, 0x00, 0x00, 0xb5, 0xec, 0xff, 0xff, 
    0x0f, 0xf8, 0xff, 0xff, 0x87, 0xea, 0xff, 0xff, 0xc7, 0x10, 0x00, 0x00, 
    0x51, 0x1c, 0x00, 0x00, 0x63, 0x0a, 0x00, 0x00, 0x91, 0x42, 0x00, 0x00, 
    0x6d, 0x20, 0x00, 0x00, 0xe0, 0xfe, 0xff, 0xff, 0xe4, 0xfe, 0xff, 0xff, 
    0x0f, 0x00, 0x00, 0x00, 0x4d, 0x4c, 0x49, 0x52, 0x20, 0x43, 0x6f, 0x6e, 
    0x76, 0x65, 0x72, 0x74, 0x65, 0x64, 0x2e, 0x00, 0x01, 0x00, 0x00, 0x00, 
    0x14, 0x00, 0x00, 0x00, 0x00, 0x00, 0x0e, 0x00, 0x18, 0x00, 0x14, 0x00, 
    0x10, 0x00, 0x0c, 0x00, 0x08, 0x00, 0x04, 0x00, 0x0e, 0x00, 0x00, 0x00, 
    0x14, 0x00, 0x00, 0x00, 0x1c, 0x00, 0x00, 0x00, 0x90, 0x01, 0x00, 0x00, 
    0x94, 0x01, 0x00, 0x00, 0x98, 0x01, 0x00, 0x00, 0x04, 0x00, 0x00, 0x00, 
    0x6d, 0x61, 0x69, 0x6e, 0x00, 0x00, 0x00, 0x00, 0x06, 0x00, 0x00, 0x00, 
    0x38, 0x01, 0x00, 0x00, 0xf0, 0x00, 0x00, 0x00, 0xa8, 0x00, 0x00, 0x00, 
    0x70, 0x00, 0x00, 0x00, 0x38, 0x00, 0x00, 0x00, 0x04, 0x00, 0x00, 0x00, 
    0x32, 0xff, 0xff, 0xff, 0x10, 0x00, 0x00, 0x00, 0x00, 0x00, 0x00, 0x08, 
    0x0c, 0x00, 0x00, 0x00, 0x10, 0x00, 0x00, 0x00, 0x68, 0xff, 0xff, 0xff, 
    0x01, 0x00, 0x00, 0x00, 0x11, 0x00, 0x00, 0x00, 0x03, 0x00, 0x00, 0x00, 
    0x10, 0x00, 0x00, 0x00, 0x02, 0x00, 0x00, 0x00, 0x01, 0x00, 0x00, 0x00, 
    0x62, 0xff, 0xff, 0xff, 0x10, 0x00, 0x00, 0x00, 0x00, 0x00, 0x00, 0x08, 
    0x10, 0x00, 0x00, 0x00, 0x14, 0x00, 0x00, 0x00, 0x0e, 0xff, 0xff, 0xff, 
    0x00, 0x00, 0x00, 0x01, 0x01, 0x00, 0x00, 0x00, 0x10, 0x00, 0x00, 0x00, 
    0x03, 0x00, 0x00, 0x00, 0x0f, 0x00, 0x00, 0x00, 0x04, 0x00, 0x00, 0x00, 
    0x03, 0x00, 0x00, 0x00, 0x96, 0xff, 0xff, 0xff, 0x10, 0x00, 0x00, 0x00, 
    0x00, 0x00, 0x00, 0x08, 0x10, 0x00, 0x00, 0x00, 0x14, 0x00, 0x00, 0x00, 
    0x42, 0xff, 0xff, 0xff, 0x00, 0x00, 0x00, 0x01, 0x01, 0x00, 0x00, 0x00, 
    0x0f, 0x00, 0x00, 0x00, 0x03, 0x00, 0x00, 0x00, 0x0e, 0x00, 0x00, 0x00, 
    0x06, 0x00, 0x00, 0x00, 0x05, 0x00, 0x00, 0x00, 0xca, 0xff, 0xff, 0xff, 
    0x14, 0x00, 0x00, 0x00, 0x00, 0x00, 0x00, 0x08, 0x10, 0x00, 0x00, 0x00, 
    0x14, 0x00, 0x00, 0x00, 0x04, 0x00, 0x04, 0x00, 0x04, 0x00, 0x00, 0x00, 
    0x01, 0x00, 0x00, 0x00, 0x0e, 0x00, 0x00, 0x00, 0x03, 0x00, 0x00, 0x00, 
    0x0d, 0x00, 0x00, 0x00, 0x07, 0x00, 0x00, 0x00, 0xff, 0xff, 0xff, 0xff, 
    0x00, 0x00, 0x0e, 0x00, 0x14, 0x00, 0x00, 0x00, 0x10, 0x00, 0x0c, 0x00, 
    0x0b, 0x00, 0x04, 0x00, 0x0e, 0x00, 0x00, 0x00, 0x10, 0x00, 0x00, 0x00, 
    0x00, 0x00, 0x00, 0x08, 0x10, 0x00, 0x00, 0x00, 0x14, 0x00, 0x00, 0x00, 
    0xba, 0xff, 0xff, 0xff, 0x00, 0x00, 0x00, 0x01, 0x01, 0x00, 0x00, 0x00, 
    0x0d, 0x00, 0x00, 0x00, 0x03, 0x00, 0x00, 0x00, 0x0c, 0x00, 0x00, 0x00, 
    0x09, 0x00, 0x00, 0x00, 0x08, 0x00, 0x00, 0x00, 0x00, 0x00, 0x0e, 0x00, 
    0x16, 0x00, 0x00, 0x00, 0x10, 0x00, 0x0c, 0x00, 0x0b, 0x00, 0x04, 0x00, 
    0x0e, 0x00, 0x00, 0x00, 0x18, 0x00, 0x00, 0x00, 0x00, 0x00, 0x00, 0x08, 
    0x18, 0x00, 0x00, 0x00, 0x1c, 0x00, 0x00, 0x00, 0x00, 0x00, 0x06, 0x00, 
    0x08, 0x00, 0x07, 0x00, 0x06, 0x00, 0x00, 0x00, 0x00, 0x00, 0x00, 0x01, 
    0x01, 0x00, 0x00, 0x00, 0x0c, 0x00, 0x00, 0x00, 0x03, 0x00, 0x00, 0x00, 
    0x00, 0x00, 0x00, 0x00, 0x0b, 0x00, 0x00, 0x00, 0x0a, 0x00, 0x00, 0x00, 
    0x01, 0x00, 0x00, 0x00, 0x11, 0x00, 0x00, 0x00, 0x01, 0x00, 0x00, 0x00, 
    0x00, 0x00, 0x00, 0x00, 0x12, 0x00, 0x00, 0x00, 0xd4, 0x1c, 0x00, 0x00, 
    0x44, 0x19, 0x00, 0x00, 0xc8, 0x15, 0x00, 0x00, 0x34, 0x13, 0x00, 0x00, 
    0x98, 0x10, 0x00, 0x00, 0x24, 0x0f, 0x00, 0x00, 0xa8, 0x0d, 0x00, 0x00, 
    0x04, 0x0d, 0x00, 0x00, 0x90, 0x0b, 0x00, 0x00, 0x14, 0x0a, 0x00, 0x00, 
    0x80, 0x07, 0x00, 0x00, 0xe4, 0x04, 0x00, 0x00, 0xf0, 0x03, 0x00, 0x00, 
    0xf4, 0x02, 0x00, 0x00, 0x80, 0x02, 0x00, 0x00, 0x64, 0x01, 0x00, 0x00, 
    0x68, 0x00, 0x00, 0x00, 0x04, 0x00, 0x00, 0x00, 0x8a, 0xe3, 0xff, 0xff, 
    0x00, 0x00, 0x00, 0x01, 0x14, 0x00, 0x00, 0x00, 0x30, 0x00, 0x00, 0x00, 
    0x12, 0x00, 0x00, 0x00, 0x00, 0x00, 0x00, 0x09, 0x3c, 0x00, 0x00, 0x00, 
    0x74, 0xe3, 0xff, 0xff, 0x08, 0x00, 0x00, 0x00, 0x10, 0x00, 0x00, 0x00, 
    0x01, 0x00, 0x00, 0x00, 0x9b, 0xff, 0xff, 0xff, 0xff, 0xff, 0xff, 0xff, 
    0x01, 0x00, 0x00, 0x00, 0xc9, 0x10, 0x6e, 0x3b, 0x11, 0x00, 0x00, 0x00, 
    0x50, 0x61, 0x72, 0x74, 0x69, 0x74, 0x69, 0x6f, 0x6e, 0x65, 0x64, 0x43, 
    0x61, 0x6c, 0x6c, 0x3a, 0x30, 0x00, 0x00, 0x00, 0x02, 0x00, 0x00, 0x00, 
    0x01, 0x00, 0x00, 0x00, 0x43, 0x00, 0x00, 0x00, 0xea, 0xe3, 0xff, 0xff, 
    0x00, 0x00, 0x00, 0x01, 0x14, 0x00, 0x00, 0x00, 0x34, 0x00, 0x00, 0x00, 
    0x11, 0x00, 0x00, 0x00, 0x00, 0x00, 0x00, 0x09, 0xd4, 0x00, 0x00, 0x00, 
    0xd4, 0xe3, 0xff, 0xff, 0x08, 0x00, 0x00, 0x00, 0x14, 0x00, 0x00, 0x00, 
    0x01, 0x00, 0x00, 0x00, 0x80, 0xff, 0xff, 0xff, 0xff, 0xff, 0xff, 0xff, 
    0x00, 0x00, 0x00, 0x00, 0x01, 0x00, 0x00, 0x00, 0x3b, 0x95, 0x1e, 0x3c, 
    0xa7, 0x00, 0x00, 0x00, 0x6d, 0x6f, 0x64, 0x65, 0x6c, 0x5f, 0x38, 0x2f, 
    0x74, 0x66, 0x2e, 0x6c, 0x69, 0x6e, 0x61, 0x6c, 0x67, 0x2e, 0x6d, 0x61, 
    0x74, 0x6d, 0x75, 0x6c, 0x5f, 0x34, 0x2f, 0x4d, 0x61, 0x74, 0x4d, 0x75, 
    0x6c, 0x3b, 0x6d, 0x6f, 0x64, 0x65, 0x6c, 0x5f, 0x38, 0x2f, 0x74, 0x66, 
    0x2e, 0x5f, 0x5f, 0x6f, 0x70, 0x65, 0x72, 0x61, 0x74, 0x6f, 0x72, 0x73, 
    0x5f, 0x5f, 0x2e, 0x61, 0x64, 0x64, 0x5f, 0x31, 0x30, 0x2f, 0x41, 0x64, 
    0x64, 0x56, 0x32, 0x3b, 0x6d, 0x6f, 0x64, 0x65, 0x6c, 0x5f, 0x38, 0x2f, 
    0x74, 0x66, 0x2e, 0x6d, 0x61, 0x74, 0x68, 0x2e, 0x6d, 0x75, 0x6c, 0x74, 
    0x69, 0x70, 0x6c, 0x79, 0x5f, 0x31, 0x31, 0x2f, 0x4d, 0x75, 0x6c, 0x3b, 
    0x6d, 0x6f, 0x64, 0x65, 0x6c, 0x5f, 0x38, 0x2f, 0x74, 0x66, 0x2e, 0x6e, 
    0x6e, 0x2e, 0x72, 0x65, 0x6c, 0x75, 0x5f, 0x33, 0x2f, 0x52, 0x65, 0x6c, 
    0x75, 0x3b, 0x6d, 0x6f, 0x64, 0x65, 0x6c, 0x5f, 0x38, 0x2f, 0x74, 0x66, 
    0x2e, 0x5f, 0x5f, 0x6f, 0x70, 0x65, 0x72, 0x61, 0x74, 0x6f, 0x72, 0x73, 
    0x5f, 0x5f, 0x2e, 0x61, 0x64, 0x64, 0x5f, 0x31, 0x31, 0x2f, 0x41, 0x64, 
    0x64, 0x56, 0x32, 0x00, 0x02, 0x00, 0x00, 0x00, 0x01, 0x00, 0x00, 0x00, 
    0x30, 0x00, 0x00, 0x00, 0xe2, 0xe4, 0xff, 0xff, 0x00, 0x00, 0x00, 0x01, 
    0x14, 0x00, 0x00, 0x00, 0x30, 0x00, 0x00, 0x00, 0x10, 0x00, 0x00, 0x00, 
    0x00, 0x00, 0x00, 0x09, 0xf4, 0x00, 0x00, 0x00, 0xcc, 0xe4, 0xff, 0xff, 
    0x08, 0x00, 0x00, 0x00, 0x10, 0x00, 0x00, 0x00, 0x01, 0x00, 0x00, 0x00, 
    0x80, 0xff, 0xff, 0xff, 0xff, 0xff, 0xff, 0xff, 0x01, 0x00, 0x00, 0x00, 
    0xd3, 0x3b, 0x3d, 0x3c, 0xc9, 0x00, 0x00, 0x00, 0x6d, 0x6f, 0x64, 0x65, 
    0x6c, 0x5f, 0x38, 0x2f, 0x74, 0x66, 0x2e, 0x5f, 0x5f, 0x6f, 0x70, 0x65, 
    0x72, 0x61, 0x74, 0x6f, 0x72, 0x73, 0x5f, 0x5f, 0x2e, 0x61, 0x64, 0x64, 
    0x5f, 0x36, 0x2f, 0x41, 0x64, 0x64, 0x56, 0x32, 0x3b, 0x6d, 0x6f, 0x64, 
    0x65, 0x6c, 0x5f, 0x38, 0x2f, 0x74, 0x66, 0x2e, 0x6c, 0x69, 0x6e, 0x61, 
    0x6c, 0x67, 0x2e, 0x6d, 0x61, 0x74, 0x6d, 0x75, 0x6c, 0x5f, 0x33, 0x2f, 
    0x4d, 0x61, 0x74, 0x4d, 0x75, 0x6c, 0x3b, 0x6d, 0x6f, 0x64, 0x65, 0x6c, 
    0x5f, 0x38, 0x2f, 0x74, 0x66, 0x2e, 0x5f, 0x5f, 0x6f, 0x70, 0x65, 0x72, 
    0x61, 0x74, 0x6f, 0x72, 0x73, 0x5f, 0x5f, 0x2e, 0x61, 0x64, 0x64, 0x5f, 
    0x37, 0x2f, 0x41, 0x64, 0x64, 0x56, 0x32, 0x3b, 0x6d, 0x6f, 0x64, 0x65, 
    0x6c, 0x5f, 0x38, 0x2f, 0x74, 0x66, 0x2e, 0x6d, 0x61, 0x74, 0x68, 0x2e, 
    0x6d, 0x75, 0x6c, 0x74, 0x69, 0x70, 0x6c, 0x79, 0x5f, 0x38, 0x2f, 0x4d, 
    0x75, 0x6c, 0x3b, 0x6d, 0x6f, 0x64, 0x65, 0x6c, 0x5f, 0x38, 0x2f, 0x74, 
    0x66, 0x2e, 0x6e, 0x6e, 0x2e, 0x72, 0x65, 0x6c, 0x75, 0x5f, 0x32, 0x2f, 
    0x52, 0x65, 0x6c, 0x75, 0x3b, 0x6d, 0x6f, 0x64, 0x65, 0x6c, 0x5f, 0x38, 
    0x2f, 0x74, 0x66, 0x2e, 0x5f, 0x5f, 0x6f, 0x70, 0x65, 0x72, 0x61, 0x74, 
    0x6f, 0x72, 0x73, 0x5f, 0x5f, 0x2e, 0x61, 0x64, 0x64, 0x5f, 0x38, 0x2f, 
    0x41, 0x64, 0x64, 0x56, 0x32, 0x00, 0x00, 0x00, 0x02, 0x00, 0x00, 0x00, 
    0x01, 0x00, 0x00, 0x00, 0x18, 0x00, 0x00, 0x00, 0xfa, 0xe5, 0xff, 0xff, 
    0x00, 0x00, 0x00, 0x01, 0x14, 0x00, 0x00, 0x00, 0x30, 0x00, 0x00, 0x00, 
    0x0f, 0x00, 0x00, 0x00, 0x00, 0x00, 0x00, 0x09, 0x4c, 0x00, 0x00, 0x00, 
    0xe4, 0xe5, 0xff, 0xff, 0x08, 0x00, 0x00, 0x00, 0x10, 0x00, 0x00, 0x00, 
    0x01, 0x00, 0x00, 0x00, 0x07, 0x00, 0x00, 0x00, 0x00, 0x00, 0x00, 0x00, 
    0x01, 0x00, 0x00, 0x00, 0x8b, 0xe0, 0xff, 0x3c, 0x21, 0x00, 0x00, 0x00, 
    0x6d, 0x6f, 0x64, 0x65, 0x6c, 0x5f, 0x38, 0x2f, 0x74, 0x66, 0x2e, 0x6c, 
    0x69, 0x6e, 0x61, 0x6c, 0x67, 0x2e, 0x6d, 0x61, 0x74, 0x6d, 0x75, 0x6c, 
    0x5f, 0x32, 0x2f, 0x4d, 0x61, 0x74, 0x4d, 0x75, 0x6c, 0x00, 0x00, 0x00, 
    0x02, 0x00, 0x00, 0x00, 0x01, 0x00, 0x00, 0x00, 0x06, 0x00, 0x00, 0x00, 
    0x6a, 0xe6, 0xff, 0xff, 0x00, 0x00, 0x00, 0x01, 0x14, 0x00, 0x00, 0x00, 
    0x34, 0x00, 0x00, 0x00, 0x0e, 0x00, 0x00, 0x00, 0x00, 0x00, 0x00, 0x09, 
    0xd4, 0x00, 0x00, 0x00, 0x54, 0xe6, 0xff, 0xff, 0x08, 0x00, 0x00, 0x00, 
    0x14, 0x00, 0x00, 0x00, 0x01, 0x00, 0x00, 0x00, 0x80, 0xff, 0xff, 0xff, 
    0xff, 0xff, 0xff, 0xff, 0x00, 0x00, 0x00, 0x00, 0x01, 0x00, 0x00, 0x00, 
    0xf4, 0xfb, 0x53, 0x3c, 0xa4, 0x00, 0x00, 0x00, 0x6d, 0x6f, 0x64, 0x65, 
    0x6c, 0x5f, 0x38, 0x2f, 0x74, 0x66, 0x2e, 0x6c, 0x69, 0x6e, 0x61, 0x6c, 
    0x67, 0x2e, 0x6d, 0x61, 0x74, 0x6d, 0x75, 0x6c, 0x5f, 0x31, 0x2f, 0x4d, 
    0x61, 0x74, 0x4d, 0x75, 0x6c, 0x3b, 0x6d, 0x6f, 0x64, 0x65, 0x6c, 0x5f, 
    0x38, 0x2f, 0x74, 0x66, 0x2e, 0x5f, 0x5f, 0x6f, 0x70, 0x65, 0x72, 0x61, 
    0x74, 0x6f, 0x72, 0x73, 0x5f, 0x5f, 0x2e, 0x61, 0x64, 0x64, 0x5f, 0x33, 
    0x2f, 0x41, 0x64, 0x64, 0x56, 0x32, 0x3b, 0x6d, 0x6f, 0x64, 0x65, 0x6c, 
    0x5f, 0x38, 0x2f, 0x74, 0x66, 0x2e, 0x6d, 0x61, 0x74, 0x68, 0x2e, 0x6d, 
    0x75, 0x6c, 0x74, 0x69, 0x70, 0x6c, 0x79, 0x5f, 0x34, 0x2f, 0x4d, 0x75, 
    0x6c, 0x3b, 0x6d, 0x6f, 0x64, 0x65, 0x6c, 0x5f, 0x38, 0x2f, 0x74, 0x66, 
    0x2e, 0x6e, 0x6e, 0x2e, 0x72, 0x65, 0x6c, 0x75, 0x5f, 0x31, 0x2f, 0x52, 
    0x65, 0x6c, 0x75, 0x3b, 0x6d, 0x6f, 0x64, 0x65, 0x6c, 0x5f, 0x38, 0x2f, 
    0x74, 0x66, 0x2e, 0x5f, 0x5f, 0x6f, 0x70, 0x65, 0x72, 0x61, 0x74, 0x6f, 
    0x72, 0x73, 0x5f, 0x5f, 0x2e, 0x61, 0x64, 0x64, 0x5f, 0x34, 0x2f, 0x41, 
    0x64, 0x64, 0x56, 0x32, 0x00, 0x00, 0x00, 0x00, 0x02, 0x00, 0x00, 0x00, 
    0x01, 0x00, 0x00, 0x00, 0x18, 0x00, 0x00, 0x00, 0x62, 0xe7, 0xff, 0xff, 
    0x00, 0x00, 0x00, 0x01, 0x14, 0x00, 0x00, 0x00, 0x34, 0x00, 0x00, 0x00, 
    0x0d, 0x00, 0x00, 0x00, 0x00, 0x00, 0x00, 0x09, 0xcc, 0x00, 0x00, 0x00, 
    0x4c, 0xe7, 0xff, 0xff, 0x08, 0x00, 0x00, 0x00, 0x14, 0x00, 0x00, 0x00, 
    0x01, 0x00, 0x00, 0x00, 0x80, 0xff, 0xff, 0xff, 0xff, 0xff, 0xff, 0xff, 
    0x00, 0x00, 0x00, 0x00, 0x01, 0x00, 0x00, 0x00, 0xbf, 0xcb, 0x68, 0x3c, 
    0x9e, 0x00, 0x00, 0x00, 0x6d, 0x6f, 0x64, 0x65, 0x6c, 0x5f, 0x38, 0x2f, 
    0x74, 0x66, 0x2e, 0x6c, 0x69, 0x6e, 0x61, 0x6c, 0x67, 0x2e, 0x6d, 0x61, 
    0x74, 0x6d, 0x75, 0x6c, 0x2f, 0x4d, 0x61, 0x74, 0x4d, 0x75, 0x6c, 0x3b, 
    0x6d, 0x6f, 0x64, 0x65, 0x6c, 0x5f, 0x38, 0x2f, 0x74, 0x66, 0x2e, 0x5f, 
    0x5f, 0x6f, 0x70, 0x65, 0x72, 0x61, 0x74, 0x6f, 0x72, 0x73, 0x5f, 0x5f, 
    0x2e, 0x61, 0x64, 0x64, 0x2f, 0x41, 0x64, 0x64, 0x56, 0x32, 0x3b, 0x6d, 
    0x6f, 0x64, 0x65, 0x6c, 0x5f, 0x38, 0x2f, 0x74, 0x66, 0x2e, 0x6d, 0x61, 
    0x74, 0x68, 0x2e, 0x6d, 0x75, 0x6c, 0x74, 0x69, 0x70, 0x6c, 0x79, 0x5f, 
    0x31, 0x2f, 0x4d, 0x75, 0x6c, 0x3b, 0x6d, 0x6f, 0x64, 0x65, 0x6c, 0x5f, 
    0x38, 0x2f, 0x74, 0x66, 0x2e, 0x6e, 0x6e, 0x2e, 0x72, 0x65, 0x6c, 0x75, 
    0x2f, 0x52, 0x65, 0x6c, 0x75, 0x3b, 0x6d, 0x6f, 0x64, 0x65, 0x6c, 0x5f, 
    0x38, 0x2f, 0x74, 0x66, 0x2e, 0x5f, 0x5f, 0x6f, 0x70, 0x65, 0x72, 0x61, 
    0x74, 0x6f, 0x72, 0x73, 0x5f, 0x5f, 0x2e, 0x61, 0x64, 0x64, 0x5f, 0x31, 
    0x2f, 0x41, 0x64, 0x64, 0x56, 0x32, 0x00, 0x00, 0x02, 0x00, 0x00, 0x00, 
    0x01, 0x00, 0x00, 0x00, 0x30, 0x00, 0x00, 0x00, 0x52, 0xe8, 0xff, 0xff, 
    0x00, 0x00, 0x00, 0x01, 0x14, 0x00, 0x00, 0x00, 0x68, 0x02, 0x00, 0x00, 
    0x0c, 0x00, 0x00, 0x00, 0x00, 0x00, 0x00, 0x09, 0x74, 0x02, 0x00, 0x00, 
    0x3c, 0xe8, 0xff, 0xff, 0x08, 0x00, 0x00, 0x00, 0x8c, 0x01, 0x00, 0x00, 
    0x30, 0x00, 0x00, 0x00, 0x00, 0x00, 0x00, 0x00, 0x00, 0x00, 0x00, 0x00, 
    0x00, 0x00, 0x00, 0x00, 0x00, 0x00, 0x00, 0x00, 0x00, 0x00, 0x00, 0x00, 
    0x00, 0x00, 0x00, 0x00, 0x00, 0x00, 0x00, 0x00, 0x00, 0x00, 0x00, 0x00, 
    0x00, 0x00, 0x00, 0x00, 0x00, 0x00, 0x00, 0x00, 0x00, 0x00, 0x00, 0x00, 
    0x00, 0x00, 0x00, 0x00, 0x00, 0x00, 0x00, 0x00, 0x00, 0x00, 0x00, 0x00, 
    0x00, 0x00, 0x00, 0x00, 0x00, 0x00, 0x00, 0x00, 0x00, 0x00, 0x00, 0x00, 
    0x00, 0x00, 0x00, 0x00, 0x00, 0x00, 0x00, 0x00, 0x00, 0x00, 0x00, 0x00, 
    0x00, 0x00, 0x00, 0x00, 0x00, 0x00, 0x00, 0x00, 0x00, 0x00, 0x00, 0x00, 
    0x00, 0x00, 0x00, 0x00, 0x00, 0x00, 0x00, 0x00, 0x00, 0x00, 0x00, 0x00, 
    0x00, 0x00, 0x00, 0x00, 0x00, 0x00, 0x00, 0x00, 0x00, 0x00, 0x00, 0x00, 
    0x00, 0x00, 0x00, 0x00, 0x00, 0x00, 0x00, 0x00, 0x00, 0x00, 0x00, 0x00, 
    0x00, 0x00, 0x00, 0x00, 0x00, 0x00, 0x00, 0x00, 0x00, 0x00, 0x00, 0x00, 
    0x00, 0x00, 0x00, 0x00, 0x00, 0x00, 0x00, 0x00, 0x00, 0x00, 0x00, 0x00, 
    0x00, 0x00, 0x00, 0x00, 0x00, 0x00, 0x00, 0x00, 0x00, 0x00, 0x00, 0x00, 
    0x00, 0x00, 0x00, 0x00, 0x00, 0x00, 0x00, 0x00, 0x00, 0x00, 0x00, 0x00, 
    0x00, 0x00, 0x00, 0x00, 0x00, 0x00, 0x00, 0x00, 0x00, 0x00, 0x00, 0x00, 
    0x00, 0x00, 0x00, 0x00, 0x00, 0x00, 0x00, 0x00, 0x00, 0x00, 0x00, 0x00, 
    0x00, 0x00, 0x00, 0x00, 0x00, 0x00, 0x00, 0x00, 0x00, 0x00, 0x00, 0x00, 
    0x00, 0x00, 0x00, 0x00, 0x00, 0x00, 0x00, 0x00, 0x00, 0x00, 0x00, 0x00, 
    0x00, 0x00, 0x00, 0x00, 0x00, 0x00, 0x00, 0x00, 0x00, 0x00, 0x00, 0x00, 
    0x00, 0x00, 0x00, 0x00, 0x00, 0x00, 0x00, 0x00, 0x00, 0x00, 0x00, 0x00, 
    0x00, 0x00, 0x00, 0x00, 0x00, 0x00, 0x00, 0x00, 0x00, 0x00, 0x00, 0x00, 
    0x00, 0x00, 0x00, 0x00, 0x00, 0x00, 0x00, 0x00, 0x00, 0x00, 0x00, 0x00, 
    0x00, 0x00, 0x00, 0x00, 0x00, 0x00, 0x00, 0x00, 0x00, 0x00, 0x00, 0x00, 
    0x00, 0x00, 0x00, 0x00, 0x00, 0x00, 0x00, 0x00, 0x00, 0x00, 0x00, 0x00, 
    0x00, 0x00, 0x00, 0x00, 0x00, 0x00, 0x00, 0x00, 0x00, 0x00, 0x00, 0x00, 
    0x00, 0x00, 0x00, 0x00, 0x00, 0x00, 0x00, 0x00, 0x00, 0x00, 0x00, 0x00, 
    0x00, 0x00, 0x00, 0x00, 0x00, 0x00, 0x00, 0x00, 0x00, 0x00, 0x00, 0x00, 
    0x00, 0x00, 0x00, 0x00, 0x00, 0x00, 0x00, 0x00, 0x00, 0x00, 0x00, 0x00, 
    0x00, 0x00, 0x00, 0x00, 0x00, 0x00, 0x00, 0x00, 0x00, 0x00, 0x00, 0x00, 
    0x00, 0x00, 0x00, 0x00, 0x00, 0x00, 0x00, 0x00, 0x00, 0x00, 0x00, 0x00, 
    0x00, 0x00, 0x00, 0x00, 0x00, 0x00, 0x00, 0x00, 0x00, 0x00, 0x00, 0x00, 
    0x00, 0x00, 0x00, 0x00, 0x00, 0x00, 0x00, 0x00, 0x30, 0x00, 0x00, 0x00, 
    0xab, 0xbe, 0xed, 0x3b, 0x27, 0x6a, 0x4f, 0x3c, 0xf7, 0x4f, 0x8b, 0x3c, 
    0x20, 0x16, 0x97, 0x3c, 0xd6, 0xee, 0x87, 0x3c, 0x07, 0x33, 0xb8, 0x3c, 
    0x03, 0x9f, 0xb6, 0x3c, 0x42, 0x0c, 0x72, 0x3c, 0x2b, 0xc6, 0x8f, 0x3c, 
    0x4d, 0xe0, 0x73, 0x3c, 0x1b, 0x4b, 0x9a, 0x3c, 0xd5, 0xc1, 0x4e, 0x3c, 
    0xd8, 0xa6, 0x98, 0x3c, 0x92, 0x30, 0xc7, 0x3c, 0x72, 0x3d, 0x61, 0x3c, 
    0x55, 0xcb, 0x9a, 0x3c, 0xcb, 0x15, 0x55, 0x3c, 0x15, 0x6b, 0x78, 0x3c, 
    0x83, 0x83, 0x57, 0x3c, 0x36, 0x5a, 0x88, 0x3c, 0x90, 0xec, 0x7e, 0x3c, 
    0x15, 0xf7, 0x6b, 0x3c, 0xdc, 0xa3, 0x3f, 0x3c, 0x31, 0x42, 0x65, 0x3c, 
    0x70, 0xe0, 0x18, 0x3c, 0x68, 0x0a, 0x76, 0x3c, 0x28, 0x0f, 0x2a, 0x3c, 
    0x20, 0xf9, 0x92, 0x3c, 0x7e, 0xd5, 0x6c, 0x3c, 0x4d, 0x52, 0x97, 0x3c, 
    0xba, 0xfc, 0x97, 0x3c, 0xc8, 0x12, 0x0a, 0x3c, 0x3a, 0xf6, 0x2b, 0x3c, 
    0xc2, 0xdf, 0x41, 0x3c, 0x42, 0x2a, 0x50, 0x3c, 0xac, 0x53, 0x1c, 0x3c, 
    0xe7, 0x91, 0x83, 0x3c, 0x51, 0xba, 0x5d, 0x3c, 0xe9, 0x9e, 0x6b, 0x3c, 
    0x69, 0x1e, 0x64, 0x3c, 0x3e, 0x57, 0x29, 0x3c, 0xef, 0xb0, 0x9c, 0x3c, 
    0x15, 0x99, 0x70, 0x3c, 0x27, 0xc6, 0x94, 0x3c, 0xa6, 0x0a, 0xbc, 0x3c, 
    0xcf, 0x3b, 0x66, 0x3c, 0xd1, 0xa1, 0x1a, 0x3c, 0x6e, 0xe2, 0x6d, 0x3c, 
    0x13, 0x00, 0x00, 0x00, 0x74, 0x66, 0x6c, 0x2e, 0x70, 0x73, 0x65, 0x75, 
    0x64, 0x6f, 0x5f, 0x71, 0x63, 0x6f, 0x6e, 0x73, 0x74, 0x31, 0x30, 0x00, 
    0x02, 0x00, 0x00, 0x00, 0x30, 0x00, 0x00, 0x00, 0x43, 0x00, 0x00, 0x00, 
    0xea, 0xea, 0xff, 0xff, 0x00, 0x00, 0x00, 0x01, 0x14, 0x00, 0x00, 0x00, 
    0x64, 0x02, 0x00, 0x00, 0x0b, 0x00, 0x00, 0x00, 0x00, 0x00, 0x00, 0x02, 
    0x70, 0x02, 0x00, 0x00, 0xd4, 0xea, 0xff, 0xff, 0x08, 0x00, 0x00, 0x00, 
    0x88, 0x01, 0x00, 0x00, 0x30, 0x00, 0x00, 0x00, 0x00, 0x00, 0x00, 0x00, 
    0x00, 0x00, 0x00, 0x00, 0x00, 0x00, 0x00, 0x00, 0x00, 0x00, 0x00, 0x00, 
    0x00, 0x00, 0x00, 0x00, 0x00, 0x00, 0x00, 0x00, 0x00, 0x00, 0x00, 0x00, 
    0x00, 0x00, 0x00, 0x00, 0x00, 0x00, 0x00, 0x00, 0x00, 0x00, 0x00, 0x00, 
    0x00, 0x00, 0x00, 0x00, 0x00, 0x00, 0x00, 0x00, 0x00, 0x00, 0x00, 0x00, 
    0x00, 0x00, 0x00, 0x00, 0x00, 0x00, 0x00, 0x00, 0x00, 0x00, 0x00, 0x00, 
    0x00, 0x00, 0x00, 0x00, 0x00, 0x00, 0x00, 0x00, 0x00, 0x00, 0x00, 0x00, 
    0x00, 0x00, 0x00, 0x00, 0x00, 0x00, 0x00, 0x00, 0x00, 0x00, 0x00, 0x00, 
    0x00, 0x00, 0x00, 0x00, 0x00, 0x00, 0x00, 0x00, 0x00, 0x00, 0x00, 0x00, 
    0x00, 0x00, 0x00, 0x00, 0x00, 0x00, 0x00, 0x00, 0x00, 0x00, 0x00, 0x00, 
    0x00, 0x00, 0x00, 0x00, 0x00, 0x00, 0x00, 0x00, 0x00, 0x00, 0x00, 0x00, 
    0x00, 0x00, 0x00, 0x00, 0x00, 0x00, 0x00, 0x00, 0x00, 0x00, 0x00, 0x00, 
    0x00, 0x00, 0x00, 0x00, 0x00, 0x00, 0x00, 0x00, 0x00, 0x00, 0x00, 0x00, 
    0x00, 0x00, 0x00, 0x00, 0x00, 0x00, 0x00, 0x00, 0x00, 0x00, 0x00, 0x00, 
    0x00, 0x00, 0x00, 0x00, 0x00, 0x00, 0x00, 0x00, 0x00, 0x00, 0x00, 0x00, 
    0x00, 0x00, 0x00, 0x00, 0x00, 0x00, 0x00, 0x00, 0x00, 0x00, 0x00, 0x00, 
    0x00, 0x00, 0x00, 0x00, 0x00, 0x00, 0x00, 0x00, 0x00, 0x00, 0x00, 0x00, 
    0x00, 0x00, 0x00, 0x00, 0x00, 0x00, 0x00, 0x00, 0x00, 0x00, 0x00, 0x00, 
    0x00, 0x00, 0x00, 0x00, 0x00, 0x00, 0x00, 0x00, 0x00, 0x00, 0x00, 0x00, 
    0x00, 0x00, 0x00, 0x00, 0x00, 0x00, 0x00, 0x00, 0x00, 0x00, 0x00, 0x00, 
    0x00, 0x00, 0x00, 0x00, 0x00, 0x00, 0x00, 0x00, 0x00, 0x00, 0x00, 0x00, 
    0x00, 0x00, 0x00, 0x00, 0x00, 0x00, 0x00, 0x00, 0x00, 0x00, 0x00, 0x00, 
    0x00, 0x00, 0x00, 0x00, 0x00, 0x00, 0x00, 0x00, 0x00, 0x00, 0x00, 0x00, 
    0x00, 0x00, 0x00, 0x00, 0x00, 0x00, 0x00, 0x00, 0x00, 0x00, 0x00, 0x00, 
    0x00, 0x00, 0x00, 0x00, 0x00, 0x00, 0x00, 0x00, 0x00, 0x00, 0x00, 0x00, 
    0x00, 0x00, 0x00, 0x00, 0x00, 0x00, 0x00, 0x00, 0x00, 0x00, 0x00, 0x00, 
    0x00, 0x00, 0x00, 0x00, 0x00, 0x00, 0x00, 0x00, 0x00, 0x00, 0x00, 0x00, 
    0x00, 0x00, 0x00, 0x00, 0x00, 0x00, 0x00, 0x00, 0x00, 0x00, 0x00, 0x00, 
    0x00, 0x00, 0x00, 0x00, 0x00, 0x00, 0x00, 0x00, 0x00, 0x00, 0x00, 0x00, 
    0x00, 0x00, 0x00, 0x00, 0x00, 0x00, 0x00, 0x00, 0x00, 0x00, 0x00, 0x00, 
    0x00, 0x00, 0x00, 0x00, 0x00, 0x00, 0x00, 0x00, 0x00, 0x00, 0x00, 0x00, 
    0x00, 0x00, 0x00, 0x00, 0x00, 0x00, 0x00, 0x00, 0x00, 0x00, 0x00, 0x00, 
    0x00, 0x00, 0x00, 0x00, 0x00, 0x00, 0x00, 0x00, 0x30, 0x00, 0x00, 0x00, 
    0xdf, 0xcb, 0xd0, 0x37, 0xc9, 0x28, 0x36, 0x38, 0xdb, 0xb2, 0x74, 0x38, 
    0x94, 0xb0, 0x84, 0x38, 0x48, 0xc3, 0x6e, 0x38, 0x4f, 0xc5, 0xa1, 0x38, 
    0x7d, 0x62, 0xa0, 0x38, 0x55, 0x93, 0x54, 0x38, 0x1c, 0x89, 0x7c, 0x38, 
    0x62, 0x2e, 0x56, 0x38, 0x98, 0x81, 0x87, 0x38, 0xf6, 0x94, 0x35, 0x38, 
    0x81, 0x10, 0x86, 0x38, 0x95, 0xef, 0xae, 0x38, 0x70, 0xd0, 0x45, 0x38, 
    0x35, 0xf2, 0x87, 0x38, 0xab, 0x23, 0x3b, 0x38, 0x95, 0x2b, 0x5a, 0x38, 
    0xb0, 0x45, 0x3d, 0x38, 0xe2, 0x7f, 0x6f, 0x38, 0x45, 0xe2, 0x5f, 0x38, 
    0xc3, 0x3b, 0x4f, 0x38, 0x34, 0x4e, 0x28, 0x38, 0xec, 0x57, 0x49, 0x38, 
    0x16, 0x43, 0x06, 0x38, 0x05, 0x15, 0x58, 0x38, 0x34, 0x5a, 0x15, 0x38, 
    0xcb, 0x13, 0x81, 0x38, 0x17, 0xff, 0x4f, 0x38, 0x6d, 0xe5, 0x84, 0x38, 
    0x1a, 0x7b, 0x85, 0x38, 0xbb, 0x85, 0xf2, 0x37, 0xf8, 0x05, 0x17, 0x38, 
    0x78, 0x44, 0x2a, 0x38, 0x80, 0xd1, 0x36, 0x38, 0xc6, 0x4a, 0x09, 0x38, 
    0x6a, 0x19, 0x67, 0x38, 0xca, 0xba, 0x42, 0x38, 0x53, 0xee, 0x4e, 0x38, 
    0xab, 0x57, 0x48, 0x38, 0xaf, 0xb8, 0x14, 0x38, 0xae, 0x9c, 0x89, 0x38, 
    0x5a, 0x4d, 0x53, 0x38, 0xaf, 0xa8, 0x82, 0x38, 0x2a, 0x25, 0xa5, 0x38, 
    0x25, 0x33, 0x4a, 0x38, 0xbf, 0xcd, 0x07, 0x38, 0x48, 0xeb, 0x50, 0x38, 
    0x12, 0x00, 0x00, 0x00, 0x74, 0x66, 0x6c, 0x2e, 0x70, 0x73, 0x65, 0x75, 
    0x64, 0x6f, 0x5f, 0x71, 0x63, 0x6f, 0x6e, 0x73, 0x74, 0x39, 0x00, 0x00, 
    0x01, 0x00, 0x00, 0x00, 0x30, 0x00, 0x00, 0x00, 0x7a, 0xed, 0xff, 0xff, 
    0x00, 0x00, 0x00, 0x01, 0x14, 0x00, 0x00, 0x00, 0x48, 0x01, 0x00, 0x00, 
    0x0a, 0x00, 0x00, 0x00, 0x00, 0x00, 0x00, 0x09, 0x54, 0x01, 0x00, 0x00, 
    0x64, 0xed, 0xff, 0xff, 0x08, 0x00, 0x00, 0x00, 0xcc, 0x00, 0x00, 0x00, 
    0x18, 0x00, 0x00, 0x00, 0x00, 0x00, 0x00, 0x00, 0x00, 0x00, 0x00, 0x00, 
    0x00, 0x00, 0x00, 0x00, 0x00, 0x00, 0x00, 0x00, 0x00, 0x00, 0x00, 0x00, 
    0x00, 0x00, 0x00, 0x00, 0x00, 0x00, 0x00, 0x00, 0x00, 0x00, 0x00, 0x00, 
    0x00, 0x00, 0x00, 0x00, 0x00, 0x00, 0x00, 0x00, 0x00, 0x00, 0x00, 0x00, 
    0x00, 0x00, 0x00, 0x00, 0x00, 0x00, 0x00, 0x00, 0x00, 0x00, 0x00, 0x00, 
    0x00, 0x00, 0x00, 0x00, 0x00, 0x00, 0x00, 0x00, 0x00, 0x00, 0x00, 0x00, 
    0x00, 0x00, 0x00, 0x00, 0x00, 0x00, 0x00, 0x00, 0x00, 0x00, 0x00, 0x00, 
    0x00, 0x00, 0x00, 0x00, 0x00, 0x00, 0x00, 0x00, 0x00, 0x00, 0x00, 0x00, 
    0x00, 0x00, 0x00, 0x00, 0x00, 0x00, 0x00, 0x00, 0x00, 0x00, 0x00, 0x00, 
    0x00, 0x00, 0x00, 0x00, 0x00, 0x00, 0x00, 0x00, 0x00, 0x00, 0x00, 0x00, 
    0x00, 0x00, 0x00, 0x00, 0x00, 0x00, 0x00, 0x00, 0x00, 0x00, 0x00, 0x00, 
    0x00, 0x00, 0x00, 0x00, 0x00, 0x00, 0x00, 0x00, 0x00, 0x00, 0x00, 0x00, 
    0x00, 0x00, 0x00, 0x00, 0x00, 0x00, 0x00, 0x00, 0x00, 0x00, 0x00, 0x00, 
    0x00, 0x00, 0x00, 0x00, 0x00, 0x00, 0x00, 0x00, 0x00, 0x00, 0x00, 0x00, 
    0x00, 0x00, 0x00, 0x00, 0x00, 0x00, 0x00, 0x00, 0x00, 0x00, 0x00, 0x00, 
    0x00, 0x00, 0x00, 0x00, 0x00, 0x00, 0x00, 0x00, 0x00, 0x00, 0x00, 0x00, 
    0x00, 0x00, 0x00, 0x00, 0x00, 0x00, 0x00, 0x00, 0x18, 0x00, 0x00, 0x00, 
    0x4d, 0xe2, 0x39, 0x3b, 0xb9, 0xef, 0x7a, 0x3b, 0x8b, 0xb5, 0x2b, 0x3b, 
    0x0e, 0x2f, 0x58, 0x3b, 0x39, 0xb8, 0x49, 0x3b, 0x31, 0xce, 0x40, 0x3b, 
    0x1a, 0xbd, 0x31, 0x3b, 0xfd, 0x1d, 0x6b, 0x3b, 0xd3, 0x77, 0x68, 0x3b, 
    0xd6, 0x44, 0x83, 0x3b, 0x18, 0xde, 0xb2, 0x3b, 0x33, 0x3f, 0x17, 0x3b, 
    0x60, 0x5d, 0x06, 0x3b, 0x82, 0x14, 0x8e, 0x3b, 0xdf, 0x21, 0x63, 0x3b, 
    0xe3, 0xda, 0x34, 0x3b, 0xda, 0xad, 0x30, 0x3b, 0x2c, 0x32, 0x0b, 0x3b, 
    0xee, 0x97, 0x5c, 0x3b, 0xf3, 0xae, 0xee, 0x3a, 0xc5, 0x27, 0x78, 0x3b, 
    0x64, 0x3b, 0x18, 0x3b, 0x87, 0xb3, 0x42, 0x3b, 0x62, 0x04, 0x84, 0x3b, 
    0x12, 0x00, 0x00, 0x00, 0x74, 0x66, 0x6c, 0x2e, 0x70, 0x73, 0x65, 0x75, 
    0x64, 0x6f, 0x5f, 0x71, 0x63, 0x6f, 0x6e, 0x73, 0x74, 0x38, 0x00, 0x00, 
    0x02, 0x00, 0x00, 0x00, 0x18, 0x00, 0x00, 0x00, 0x30, 0x00, 0x00, 0x00, 
    0xf2, 0xee, 0xff, 0xff, 0x00, 0x00, 0x00, 0x01, 0x14, 0x00, 0x00, 0x00, 
    0x44, 0x01, 0x00, 0x00, 0x09, 0x00, 0x00, 0x00, 0x00, 0x00, 0x00, 0x02, 
    0x50, 0x01, 0x00, 0x00, 0xdc, 0xee, 0xff, 0xff, 0x08, 0x00, 0x00, 0x00, 
    0xc8, 0x00, 0x00, 0x00, 0x18, 0x00, 0x00, 0x00, 0x00, 0x00, 0x00, 0x00, 
    0x00, 0x00, 0x00, 0x00, 0x00, 0x00, 0x00, 0x00, 0x00, 0x00, 0x00, 0x00, 
    0x00, 0x00, 0x00, 0x00, 0x00, 0x00, 0x00, 0x00, 0x00, 0x00, 0x00, 0x00, 
    0x00, 0x00, 0x00, 0x00, 0x00, 0x00, 0x00, 0x00, 0x00, 0x00, 0x00, 0x00, 
    0x00, 0x00, 0x00, 0x00, 0x00, 0x00, 0x00, 0x00, 0x00, 0x00, 0x00, 0x00, 
    0x00, 0x00, 0x00, 0x00, 0x00, 0x00, 0x00, 0x00, 0x00, 0x00, 0x00, 0x00, 
    0x00, 0x00, 0x00, 0x00, 0x00, 0x00, 0x00, 0x00, 0x00, 0x00, 0x00, 0x00, 
    0x00, 0x00, 0x00, 0x00, 0x00, 0x00, 0x00, 0x00, 0x00, 0x00, 0x00, 0x00, 
    0x00, 0x00, 0x00, 0x00, 0x00, 0x00, 0x00, 0x00, 0x00, 0x00, 0x00, 0x00, 
    0x00, 0x00, 0x00, 0x00, 0x00, 0x00, 0x00, 0x00, 0x00, 0x00, 0x00, 0x00, 
    0x00, 0x00, 0x00, 0x00, 0x00, 0x00, 0x00, 0x00, 0x00, 0x00, 0x00, 0x00, 
    0x00, 0x00, 0x00, 0x00, 0x00, 0x00, 0x00, 0x00, 0x00, 0x00, 0x00, 0x00, 
    0x00, 0x00, 0x00, 0x00, 0x00, 0x00, 0x00, 0x00, 0x00, 0x00, 0x00, 0x00, 
    0x00, 0x00, 0x00, 0x00, 0x00, 0x00, 0x00, 0x00, 0x00, 0x00, 0x00, 0x00, 
    0x00, 0x00, 0x00, 0x00, 0x00, 0x00, 0x00, 0x00, 0x00, 0x00, 0x00, 0x00, 
    0x00, 0x00, 0x00, 0x00, 0x00, 0x00, 0x00, 0x00, 0x00, 0x00, 0x00, 0x00, 
    0x00, 0x00, 0x00, 0x00, 0x00, 0x00, 0x00, 0x00, 0x18, 0x00, 0x00, 0x00, 
    0x07, 0x09, 0x29, 0x38, 0xf7, 0x30, 0x64, 0x38, 0x2f, 0x25, 0x1c, 0x38, 
    0xb3, 0x96, 0x44, 0x38, 0x7f, 0x6f, 0x37, 0x38, 0x50, 0x54, 0x2f, 0x38, 
    0xd5, 0xa0, 0x21, 0x38, 0x4d, 0xce, 0x55, 0x38, 0x9c, 0x65, 0x53, 0x38, 
    0xb7, 0xbd, 0x6e, 0x38, 0xa1, 0xa7, 0xa2, 0x38, 0xa6, 0x89, 0x09, 0x38, 
    0x1f, 0x5f, 0xf4, 0x37, 0xaa, 0x33, 0x81, 0x38, 0x77, 0x8b, 0x4e, 0x38, 
    0x4e, 0x76, 0x24, 0x38, 0x2b, 0xaa, 0x20, 0x38, 0x81, 0x28, 0xfd, 0x37, 
    0x41, 0x99, 0x48, 0x38, 0x83, 0x0c, 0xd9, 0x37, 0x8b, 0xa9, 0x61, 0x38, 
    0xfb, 0x6e, 0x0a, 0x38, 0xa8, 0x0d, 0x31, 0x38, 0x16, 0x1a, 0x70, 0x38, 
    0x12, 0x00, 0x00, 0x00, 0x74, 0x66, 0x6c, 0x2e, 0x70, 0x73, 0x65, 0x75, 
    0x64, 0x6f, 0x5f, 0x71, 0x63, 0x6f, 0x6e, 0x73, 0x74, 0x37, 0x00, 0x00, 
    0x01, 0x00, 0x00, 0x00, 0x18, 0x00, 0x00, 0x00, 0x62, 0xf0, 0xff, 0xff, 
    0x00, 0x00, 0x00, 0x01, 0x14, 0x00, 0x00, 0x00, 0x70, 0x00, 0x00, 0x00, 
    0x08, 0x00, 0x00, 0x00, 0x00, 0x00, 0x00, 0x09, 0x7c, 0x00, 0x00, 0x00, 
    0x4c, 0xf0, 0xff, 0xff, 0x08, 0x00, 0x00, 0x00, 0x3c, 0x00, 0x00, 0x00, 
    0x06, 0x00, 0x00, 0x00, 0x00, 0x00, 0x00, 0x00, 0x00, 0x00, 0x00, 0x00, 
    0x00, 0x00, 0x00, 0x00, 0x00, 0x00, 0x00, 0x00, 0x00, 0x00, 0x00, 0x00, 
    0x00, 0x00, 0x00, 0x00, 0x00, 0x00, 0x00, 0x00, 0x00, 0x00, 0x00, 0x00, 
    0x00, 0x00, 0x00, 0x00, 0x00, 0x00, 0x00, 0x00, 0x00, 0x00, 0x00, 0x00, 
    0x00, 0x00, 0x00, 0x00, 0x00, 0x00, 0x00, 0x00, 0x06, 0x00, 0x00, 0x00, 
    0x4f, 0xd2, 0xe7, 0x3a, 0xfc, 0xa1, 0xef, 0x3a, 0x57, 0x3d, 0xa6, 0x3a, 
    0x4a, 0x9e, 0x92, 0x3a, 0xdd, 0x50, 0x9c, 0x3a, 0x57, 0xc1, 0x13, 0x3b, 
    0x12, 0x00, 0x00, 0x00, 0x74, 0x66, 0x6c, 0x2e, 0x70, 0x73, 0x65, 0x75, 
    0x64, 0x6f, 0x5f, 0x71, 0x63, 0x6f, 0x6e, 0x73, 0x74, 0x36, 0x00, 0x00, 
    0x02, 0x00, 0x00, 0x00, 0x06, 0x00, 0x00, 0x00, 0x18, 0x00, 0x00, 0x00, 
    0x02, 0xf1, 0xff, 0xff, 0x00, 0x00, 0x00, 0x01, 0x14, 0x00, 0x00, 0x00, 
    0x48, 0x01, 0x00, 0x00, 0x07, 0x00, 0x00, 0x00, 0x00, 0x00, 0x00, 0x09, 
    0x54, 0x01, 0x00, 0x00, 0xec, 0xf0, 0xff, 0xff, 0x08, 0x00, 0x00, 0x00, 
    0xcc, 0x00, 0x00, 0x00, 0x18, 0x00, 0x00, 0x00, 0x00, 0x00, 0x00, 0x00, 
    0x00, 0x00, 0x00, 0x00, 0x00, 0x00, 0x00, 0x00, 0x00, 0x00, 0x00, 0x00, 
    0x00, 0x00, 0x00, 0x00, 0x00, 0x00, 0x00, 0x00, 0x00, 0x00, 0x00, 0x00, 
    0x00, 0x00, 0x00, 0x00, 0x00, 0x00, 0x00, 0x00, 0x00, 0x00, 0x00, 0x00, 
    0x00, 0x00, 0x00, 0x00, 0x00, 0x00, 0x00, 0x00, 0x00, 0x00, 0x00, 0x00, 
    0x00, 0x00, 0x00, 0x00, 0x00, 0x00, 0x00, 0x00, 0x00, 0x00, 0x00, 0x00, 
    0x00, 0x00, 0x00, 0x00, 0x00, 0x00, 0x00, 0x00, 0x00, 0x00, 0x00, 0x00, 
    0x00, 0x00, 0x00, 0x00, 0x00, 0x00, 0x00, 0x00, 0x00, 0x00, 0x00, 0x00, 
    0x00, 0x00, 0x00, 0x00, 0x00, 0x00, 0x00, 0x00, 0x00, 0x00, 0x00, 0x00, 
    0x00, 0x00, 0x00, 0x00, 0x00, 0x00, 0x00, 0x00, 0x00, 0x00, 0x00, 0x00, 
    0x00, 0x00, 0x00, 0x00, 0x00, 0x00, 0x00, 0x00, 0x00, 0x00, 0x00, 0x00, 
    0x00, 0x00, 0x00, 0x00, 0x00, 0x00, 0x00, 0x00, 0x00, 0x00, 0x00, 0x00, 
    0x00, 0x00, 0x00, 0x00, 0x00, 0x00, 0x00, 0x00, 0x00, 0x00, 0x00, 0x00, 
    0x00, 0x00, 0x00, 0x00, 0x00, 0x00, 0x00, 0x00, 0x00, 0x00, 0x00, 0x00, 
    0x00, 0x00, 0x00, 0x00, 0x00, 0x00, 0x00, 0x00, 0x00, 0x00, 0x00, 0x00, 
    0x00, 0x00, 0x00, 0x00, 0x00, 0x00, 0x00, 0x00, 0x00, 0x00, 0x00, 0x00, 
    0x00, 0x00, 0x00, 0x00, 0x00, 0x00, 0x00, 0x00, 0x00, 0x00, 0x00, 0x00, 
    0x18, 0x00, 0x00, 0x00, 0xb6, 0x72, 0xa9, 0x3b, 0x75, 0xcc, 0x99, 0x3b, 
    0x0d, 0x5b, 0x37, 0x3b, 0x2a, 0x79, 0x09, 0x3b, 0x51, 0xdb, 0xde, 0x3b, 
    0x3e, 0xde, 0x9b, 0x3b, 0x0f, 0x94, 0x58, 0x3b, 0xec, 0xe4, 0xaf, 0x3b, 
    0x67, 0x64, 0x75, 0x3b, 0x23, 0x1a, 0x43, 0x3b, 0xa1, 0x42, 0x84, 0x3b, 
    0x7b, 0x45, 0x2c, 0x3b, 0x7d, 0x69, 0x67, 0x3b, 0xe4, 0x12, 0x8c, 0x3b, 
    0x9b, 0x26, 0x6f, 0x3b, 0x30, 0x10, 0xa2, 0x3b, 0xfa, 0xc4, 0x55, 0x3b, 
    0x61, 0xd2, 0xa1, 0x3b, 0x3f, 0x1a, 0x40, 0x3b, 0x72, 0xfc, 0x53, 0x3b, 
    0xd9, 0xa8, 0x80, 0x3b, 0x3b, 0x72, 0x3b, 0x3b, 0xf3, 0x85, 0x87, 0x3b, 
    0x3a, 0x1c, 0x37, 0x3b, 0x12, 0x00, 0x00, 0x00, 0x74, 0x66, 0x6c, 0x2e, 
    0x70, 0x73, 0x65, 0x75, 0x64, 0x6f, 0x5f, 0x71, 0x63, 0x6f, 0x6e, 0x73, 
    0x74, 0x35, 0x00, 0x00, 0x02, 0x00, 0x00, 0x00, 0x18, 0x00, 0x00, 0x00, 
    0x06, 0x00, 0x00, 0x00, 0x7a, 0xf2, 0xff, 0xff, 0x00, 0x00, 0x00, 0x01, 
    0x14, 0x00, 0x00, 0x00, 0x44, 0x01, 0x00, 0x00, 0x06, 0x00, 0x00, 0x00, 
    0x00, 0x00, 0x00, 0x02, 0x50, 0x01, 0x00, 0x00, 0x64, 0xf2, 0xff, 0xff, 
    0x08, 0x00, 0x00, 0x00, 0xc8, 0x00, 0x00, 0x00, 0x18, 0x00, 0x00, 0x00, 
    0x00, 0x00, 0x00, 0x00, 0x00, 0x00, 0x00, 0x00, 0x00, 0x00, 0x00, 0x00, 
    0x00, 0x00, 0x00, 0x00, 0x00, 0x00, 0x00, 0x00, 0x00, 0x00, 0x00, 0x00, 
    0x00, 0x00, 0x00, 0x00, 0x00, 0x00, 0x00, 0x00, 0x00, 0x00, 0x00, 0x00, 
    0x00, 0x00, 0x00, 0x00, 0x00, 0x00, 0x00, 0x00, 0x00, 0x00, 0x00, 0x00, 
    0x00, 0x00, 0x00, 0x00, 0x00, 0x00, 0x00, 0x00, 0x00, 0x00, 0x00, 0x00, 
    0x00, 0x00, 0x00, 0x00, 0x00, 0x00, 0x00, 0x00, 0x00, 0x00, 0x00, 0x00, 
    0x00, 0x00, 0x00, 0x00, 0x00, 0x00, 0x00, 0x00, 0x00, 0x00, 0x00, 0x00, 
    0x00, 0x00, 0x00, 0x00, 0x00, 0x00, 0x00, 0x00, 0x00, 0x00, 0x00, 0x00, 
    0x00, 0x00, 0x00, 0x00, 0x00, 0x00, 0x00, 0x00, 0x00, 0x00, 0x00, 0x00, 
    0x00, 0x00, 0x00, 0x00, 0x00, 0x00, 0x00, 0x00, 0x00, 0x00, 0x00, 0x00, 
    0x00, 0x00, 0x00, 0x00, 0x00, 0x00, 0x00, 0x00, 0x00, 0x00, 0x00, 0x00, 
    0x00, 0x00, 0x00, 0x00, 0x00, 0x00, 0x00, 0x00, 0x00, 0x00, 0x00, 0x00, 
    0x00, 0x00, 0x00, 0x00, 0x00, 0x00, 0x00, 0x00, 0x00, 0x00, 0x00, 0x00, 
    0x00, 0x00, 0x00, 0x00, 0x00, 0x00, 0x00, 0x00, 0x00, 0x00, 0x00, 0x00, 
    0x00, 0x00, 0x00, 0x00, 0x00, 0x00, 0x00, 0x00, 0x00, 0x00, 0x00, 0x00, 
    0x00, 0x00, 0x00, 0x00, 0x00, 0x00, 0x00, 0x00, 0x00, 0x00, 0x00, 0x00, 
    0x18, 0x00, 0x00, 0x00, 0xe4, 0x5d, 0x29, 0x39, 0x8f, 0xb9, 0x19, 0x39, 
    0x85, 0x44, 0xb7, 0x38, 0x45, 0x68, 0x89, 0x38, 0xef, 0xbf, 0x5e, 0x39, 
    0x17, 0xcb, 0x1b, 0x39, 0x72, 0x79, 0xd8, 0x38, 0x4f, 0xcf, 0x2f, 0x39, 
    0x40, 0x46, 0xf5, 0x38, 0x2a, 0x02, 0xc3, 0x38, 0x60, 0x32, 0x04, 0x39, 
    0x50, 0x30, 0xac, 0x38, 0x0d, 0x4d, 0xe7, 0x38, 0xae, 0x01, 0x0c, 0x39, 
    0x38, 0x09, 0xef, 0x38, 0x46, 0xfc, 0x21, 0x39, 0xb5, 0xaa, 0xd5, 0x38, 
    0x7f, 0xbe, 0x21, 0x39, 0xa4, 0x02, 0xc0, 0x38, 0x66, 0xe2, 0xd3, 0x38, 
    0x0a, 0x99, 0x00, 0x39, 0x32, 0x5b, 0xbb, 0x38, 0x4c, 0x75, 0x07, 0x39, 
    0xba, 0x05, 0xb7, 0x38, 0x12, 0x00, 0x00, 0x00, 0x74, 0x66, 0x6c, 0x2e, 
    0x70, 0x73, 0x65, 0x75, 0x64, 0x6f, 0x5f, 0x71, 0x63, 0x6f, 0x6e, 0x73, 
    0x74, 0x34, 0x00, 0x00, 0x01, 0x00, 0x00, 0x00, 0x18, 0x00, 0x00, 0x00, 
    0xea, 0xf3, 0xff, 0xff, 0x00, 0x00, 0x00, 0x01, 0x14, 0x00, 0x00, 0x00, 
    0x68, 0x02, 0x00, 0x00, 0x05, 0x00, 0x00, 0x00, 0x00, 0x00, 0x00, 0x09, 
    0x74, 0x02, 0x00, 0x00, 0xd4, 0xf3, 0xff, 0xff, 0x08, 0x00, 0x00, 0x00, 
    0x8c, 0x01, 0x00, 0x00, 0x30, 0x00, 0x00, 0x00, 0x00, 0x00, 0x00, 0x00, 
    0x00, 0x00, 0x00, 0x00, 0x00, 0x00, 0x00, 0x00, 0x00, 0x00, 0x00, 0x00, 
    0x00, 0x00, 0x00, 0x00, 0x00, 0x00, 0x00, 0x00, 0x00, 0x00, 0x00, 0x00, 
    0x00, 0x00, 0x00, 0x00, 0x00, 0x00, 0x00, 0x00, 0x00, 0x00, 0x00, 0x00, 
